{
  "version": "1.0",
  "truncation": null,
  "padding": null,
  "added_tokens": [
    {
      "id": 0,
      "content": "[PAD]",
      "single_word": false,
      "lstrip": false,
      "rstrip": false,
      "normalized": false,
      "special": true
    },
    {
      "id": 1,
      "content": "[UNK]",
      "single_word": false,
      "lstrip": false,
      "rstrip": false,
      "normalized": false,
      "special": true
    },
    {
      "id": 2,
      "content": "[CLS]",
      "single_word": false,
      "lstrip": false,
      "rstrip": false,
      "normalized": false,
      "special": true
    },
    {
      "id": 3,
      "content": "[SEP]",
      "single_word": false,
      "lstrip": false,
      "rstrip": false,
      "normalized": false,
      "special": true
    },
    {
      "id": 4,
      "content": "[MASK]",
      "single_word": false,
      "lstrip": false,
      "rstrip": false,
      "normalized": false,
      "special": true
    },
    {
      "id": 5,
      "content": "[EOS]",
      "single_word": false,
      "lstrip": false,
      "rstrip": false,
      "normalized": false,
      "special": true
    }
  ],
  "normalizer": null,
  "pre_tokenizer": {
    "type": "Whitespace"
  },
  "post_processor": null,
  "decoder": null,
  "model": {
    "type": "BPE",
    "dropout": null,
    "unk_token": "[UNK]",
    "continuing_subword_prefix": null,
    "end_of_word_suffix": null,
    "fuse_unk": false,
    "byte_fallback": false,
    "ignore_merges": false,
    "vocab": {
      "[PAD]": 0,
      "[UNK]": 1,
      "[CLS]": 2,
      "[SEP]": 3,
      "[MASK]": 4,
      "[EOS]": 5,
      "#": 6,
      "$": 7,
      "&": 8,
      "'": 9,
      "*": 10,
      "-": 11,
      ".": 12,
      "/": 13,
      "0": 14,
      "1": 15,
      "2": 16,
      "3": 17,
      "4": 18,
      "5": 19,
      "6": 20,
      "7": 21,
      "8": 22,
      "9": 23,
      "<": 24,
      ">": 25,
      "N": 26,
      "\\": 27,
      "a": 28,
      "b": 29,
      "c": 30,
      "d": 31,
      "e": 32,
      "f": 33,
      "g": 34,
      "h": 35,
      "i": 36,
      "j": 37,
      "k": 38,
      "l": 39,
      "m": 40,
      "n": 41,
      "o": 42,
      "p": 43,
      "q": 44,
      "r": 45,
      "s": 46,
      "t": 47,
      "u": 48,
      "v": 49,
      "w": 50,
      "x": 51,
      "y": 52,
      "z": 53,
      "th": 54,
      "in": 55,
      "the": 56,
      "an": 57,
      "un": 58,
      "er": 59,
      "on": 60,
      "re": 61,
      "unk": 62,
      "at": 63,
      "st": 64,
      "or": 65,
      "en": 66,
      "al": 67,
      "ed": 68,
      "ar": 69,
      "of": 70,
      "to": 71,
      "it": 72,
      "es": 73,
      "ing": 74,
      "ion": 75,
      "as": 76,
      "is": 77,
      "ro": 78,
      "and": 79,
      "il": 80,
      "ic": 81,
      "co": 82,
      "se": 83,
      "ent": 84,
      "id": 85,
      "ou": 86,
      "ch": 87,
      "le": 88,
      "ve": 89,
      "ill": 90,
      "for": 91,
      "ad": 92,
      "be": 93,
      "ct": 94,
      "sa": 95,
      "com": 96,
      "ly": 97,
      "ut": 98,
      "are": 99,
      "ur": 100,
      "that": 101,
      "de": 102,
      "lo": 103,
      "wh": 104,
      "et": 105,
      "con": 106,
      "ers": 107,
      "ld": 108,
      "ag": 109,
      "su": 110,
      "ear": 111,
      "ir": 112,
      "pro": 113,
      "ay": 114,
      "sh": 115,
      "me": 116,
      "ce": 117,
      "ig": 118,
      "ex": 119,
      "ver": 120,
      "so": 121,
      "ation": 122,
      "illion": 123,
      "ter": 124,
      "mo": 125,
      "ment": 126,
      "tr": 127,
      "po": 128,
      "no": 129,
      "he": 130,
      "said": 131,
      "am": 132,
      "comp": 133,
      "res": 134,
      "ate": 135,
      "ne": 136,
      "ab": 137,
      "we": 138,
      "ap": 139,
      "li": 140,
      "ith": 141,
      "ac": 142,
      "with": 143,
      "by": 144,
      "man": 145,
      "qu": 146,
      "fro": 147,
      "from": 148,
      "its": 149,
      "million": 150,
      "pe": 151,
      "im": 152,
      "out": 153,
      "pr": 154,
      "mr": 155,
      "ge": 156,
      "ll": 157,
      "ak": 158,
      "ain": 159,
      "was": 160,
      "year": 161,
      "bu": 162,
      "te": 163,
      "ies": 164,
      "do": 165,
      "str": 166,
      "du": 167,
      "but": 168,
      "mar": 169,
      "ts": 170,
      "ial": 171,
      "ther": 172,
      "ha": 173,
      "any": 174,
      "all": 175,
      "op": 176,
      "up": 177,
      "inc": 178,
      "pl": 179,
      "off": 180,
      "has": 181,
      "ess": 182,
      "will": 183,
      "new": 184,
      "one": 185,
      "por": 186,
      "ast": 187,
      "au": 188,
      "ive": 189,
      "if": 190,
      "und": 191,
      "ck": 192,
      "ho": 193,
      "go": 194,
      "igh": 195,
      "mark": 196,
      "have": 197,
      "act": 198,
      "sto": 199,
      "iv": 200,
      "est": 201,
      "share": 202,
      "end": 203,
      "wer": 204,
      "cor": 205,
      "say": 206,
      "art": 207,
      "ity": 208,
      "market": 209,
      "day": 210,
      "ould": 211,
      "fo": 212,
      "ich": 213,
      "fe": 214,
      "company": 215,
      "ie": 216,
      "bo": 217,
      "mon": 218,
      "ul": 219,
      "age": 220,
      "they": 221,
      "wn": 222,
      "ice": 223,
      "ant": 224,
      "stock": 225,
      "this": 226,
      "em": 227,
      "gh": 228,
      "trad": 229,
      "which": 230,
      "pres": 231,
      "port": 232,
      "would": 233,
      "ork": 234,
      "cent": 235,
      "ard": 236,
      "lu": 237,
      "other": 238,
      "more": 239,
      "per": 240,
      "about": 241,
      "af": 242,
      "us": 243,
      "ake": 244,
      "ors": 245,
      "ban": 246,
      "vest": 247,
      "ist": 248,
      "ber": 249,
      "fir": 250,
      "says": 251,
      "invest": 252,
      "who": 253,
      "sal": 254,
      "wo": 255,
      "red": 256,
      "lin": 257,
      "not": 258,
      "were": 259,
      "sin": 260,
      "ip": 261,
      "ong": 262,
      "fin": 263,
      "some": 264,
      "part": 265,
      "gro": 266,
      "billion": 267,
      "ke": 268,
      "mer": 269,
      "inter": 270,
      "our": 271,
      "anc": 272,
      "his": 273,
      "ack": 274,
      "cur": 275,
      "had": 276,
      "their": 277,
      "chan": 278,
      "min": 279,
      "bank": 280,
      "over": 281,
      "ions": 282,
      "la": 283,
      "ans": 284,
      "ust": 285,
      "than": 286,
      "ings": 287,
      "ations": 288,
      "cr": 289,
      "od": 290,
      "pre": 291,
      "ond": 292,
      "los": 293,
      "ti": 294,
      "pos": 295,
      "ated": 296,
      "reas": 297,
      "been": 298,
      "air": 299,
      "ven": 300,
      "ight": 301,
      "ach": 302,
      "also": 303,
      "eral": 304,
      "ident": 305,
      "br": 306,
      "ign": 307,
      "bl": 308,
      "di": 309,
      "cont": 310,
      "gr": 311,
      "fr": 312,
      "produ": 313,
      "um": 314,
      "ren": 315,
      "ree": 316,
      "corp": 317,
      "ance": 318,
      "cut": 319,
      "om": 320,
      "yst": 321,
      "pect": 322,
      "low": 323,
      "dis": 324,
      "cau": 325,
      "ue": 326,
      "vo": 327,
      "dec": 328,
      "coun": 329,
      "month": 330,
      "ia": 331,
      "ction": 332,
      "ding": 333,
      "ition": 334,
      "ek": 335,
      "ta": 336,
      "ical": 337,
      "ual": 338,
      "sp": 339,
      "ates": 340,
      "ary": 341,
      "ser": 342,
      "ices": 343,
      "ide": 344,
      "ble": 345,
      "comm": 346,
      "ities": 347,
      "busin": 348,
      "business": 349,
      "ous": 350,
      "can": 351,
      "int": 352,
      "arter": 353,
      "able": 354,
      "nation": 355,
      "president": 356,
      "when": 357,
      "two": 358,
      "last": 359,
      "after": 360,
      "work": 361,
      "ile": 362,
      "most": 363,
      "ough": 364,
      "quarter": 365,
      "fore": 366,
      "now": 367,
      "shares": 368,
      "cause": 369,
      "ma": 370,
      "years": 371,
      "el": 372,
      "buy": 373,
      "ms": 374,
      "ure": 375,
      "first": 376,
      "offic": 377,
      "high": 378,
      "trading": 379,
      "ish": 380,
      "sur": 381,
      "sales": 382,
      "hold": 383,
      "oper": 384,
      "cer": 385,
      "because": 386,
      "cal": 387,
      "expect": 388,
      "cou": 389,
      "iz": 390,
      "gen": 391,
      "pu": 392,
      "ef": 393,
      "fed": 394,
      "bond": 395,
      "could": 396,
      "jo": 397,
      "get": 398,
      "may": 399,
      "there": 400,
      "ted": 401,
      "indu": 402,
      "week": 403,
      "come": 404,
      "under": 405,
      "ite": 406,
      "issu": 407,
      "prov": 408,
      "industr": 409,
      "group": 410,
      "many": 411,
      "rou": 412,
      "ments": 413,
      "change": 414,
      "bas": 415,
      "fund": 416,
      "vi": 417,
      "pol": 418,
      "way": 419,
      "national": 420,
      "own": 421,
      "add": 422,
      "eric": 423,
      "only": 424,
      "dr": 425,
      "law": 426,
      "increas": 427,
      "such": 428,
      "offer": 429,
      "vern": 430,
      "govern": 431,
      "time": 432,
      "sen": 433,
      "plan": 434,
      "york": 435,
      "mak": 436,
      "av": 437,
      "very": 438,
      "wor": 439,
      "jap": 440,
      "japan": 441,
      "down": 442,
      "cas": 443,
      "ine": 444,
      "ok": 445,
      "ext": 446,
      "americ": 447,
      "prof": 448,
      "interest": 449,
      "financ": 450,
      "ci": 451,
      "into": 452,
      "like": 453,
      "ste": 454,
      "cap": 455,
      "ures": 456,
      "econ": 457,
      "econom": 458,
      "tur": 459,
      "inclu": 460,
      "car": 461,
      "report": 462,
      "just": 463,
      "ital": 464,
      "ort": 465,
      "lt": 466,
      "set": 467,
      "pt": 468,
      "state": 469,
      "serv": 470,
      "sell": 471,
      "publ": 472,
      "ence": 473,
      "fer": 474,
      "si": 475,
      "arge": 476,
      "bro": 477,
      "while": 478,
      "pay": 479,
      "sub": 480,
      "big": 481,
      "ecut": 482,
      "net": 483,
      "execut": 484,
      "government": 485,
      "compan": 486,
      "ped": 487,
      "federal": 488,
      "anal": 489,
      "ced": 490,
      "her": 491,
      "secur": 492,
      "des": 493,
      "tain": 494,
      "cy": 495,
      "inde": 496,
      "contr": 497,
      "ty": 498,
      "cial": 499,
      "cess": 500,
      "companies": 501,
      "ph": 502,
      "ating": 503,
      "rough": 504,
      "ise": 505,
      "lect": 506,
      "earn": 507,
      "gram": 508,
      "ud": 509,
      "main": 510,
      "ade": 511,
      "program": 512,
      "gu": 513,
      "analyst": 514,
      "spe": 515,
      "back": 516,
      "tax": 517,
      "uring": 518,
      "official": 519,
      "them": 520,
      "ra": 521,
      "ger": 522,
      "cents": 523,
      "exchange": 524,
      "par": 525,
      "son": 526,
      "peop": 527,
      "ind": 528,
      "cour": 529,
      "tal": 530,
      "lier": 531,
      "people": 532,
      "turn": 533,
      "even": 534,
      "med": 535,
      "sid": 536,
      "what": 537,
      "you": 538,
      "call": 539,
      "ield": 540,
      "dire": 541,
      "line": 542,
      "earlier": 543,
      "ago": 544,
      "prices": 545,
      "cost": 546,
      "product": 547,
      "ca": 548,
      "ass": 549,
      "bet": 550,
      "price": 551,
      "ord": 552,
      "curren": 553,
      "ace": 554,
      "recent": 555,
      "ting": 556,
      "jor": 557,
      "major": 558,
      "att": 559,
      "ally": 560,
      "iss": 561,
      "investors": 562,
      "mu": 563,
      "stru": 564,
      "ev": 565,
      "contin": 566,
      "gain": 567,
      "hou": 568,
      "unit": 569,
      "ird": 570,
      "rose": 571,
      "ester": 572,
      "lat": 573,
      "ress": 574,
      "take": 575,
      "fact": 576,
      "direct": 577,
      "third": 578,
      "ens": 579,
      "ail": 580,
      "ged": 581,
      "reg": 582,
      "three": 583,
      "much": 584,
      "though": 585,
      "yester": 586,
      "yesterday": 587,
      "again": 588,
      "app": 589,
      "securities": 590,
      "months": 591,
      "clos": 592,
      "put": 593,
      "je": 594,
      "ision": 595,
      "house": 596,
      "bonds": 597,
      "public": 598,
      "large": 599,
      "loss": 600,
      "comput": 601,
      "tem": 602,
      "stand": 603,
      "rate": 604,
      "ief": 605,
      "next": 606,
      "financial": 607,
      "long": 608,
      "resu": 609,
      "ose": 610,
      "sup": 611,
      "ire": 612,
      "capital": 613,
      "through": 614,
      "ict": 615,
      "cre": 616,
      "ific": 617,
      "ges": 618,
      "lead": 619,
      "ton": 620,
      "val": 621,
      "sho": 622,
      "chair": 623,
      "deb": 624,
      "profit": 625,
      "investment": 626,
      "grow": 627,
      "earnings": 628,
      "make": 629,
      "she": 630,
      "board": 631,
      "unt": 632,
      "less": 633,
      "ility": 634,
      "well": 635,
      "war": 636,
      "american": 637,
      "chairman": 638,
      "form": 639,
      "sm": 640,
      "hel": 641,
      "acqu": 642,
      "west": 643,
      "did": 644,
      "nor": 645,
      "late": 646,
      "syst": 647,
      "system": 648,
      "loy": 649,
      "pur": 650,
      "def": 651,
      "still": 652,
      "chief": 653,
      "try": 654,
      "ink": 655,
      "these": 656,
      "industry": 657,
      "oney": 658,
      "general": 659,
      "gress": 660,
      "ese": 661,
      "early": 662,
      "stocks": 663,
      "read": 664,
      "executive": 665,
      "those": 666,
      "leg": 667,
      "money": 668,
      "index": 669,
      "cu": 670,
      "gy": 671,
      "velo": 672,
      "develo": 673,
      "current": 674,
      "equ": 675,
      "yield": 676,
      "since": 677,
      "ory": 678,
      "ury": 679,
      "deal": 680,
      "mb": 681,
      "ents": 682,
      "ject": 683,
      "before": 684,
      "bill": 685,
      "gan": 686,
      "inst": 687,
      "buil": 688,
      "expected": 689,
      "ared": 690,
      "made": 691,
      "gin": 692,
      "officials": 693,
      "emp": 694,
      "reat": 695,
      "fut": 696,
      "ris": 697,
      "thing": 698,
      "concer": 699,
      "div": 700,
      "tle": 701,
      "exp": 702,
      "good": 703,
      "ended": 704,
      "bid": 705,
      "contract": 706,
      "mit": 707,
      "llar": 708,
      "ives": 709,
      "concern": 710,
      "rop": 711,
      "ere": 712,
      "ol": 713,
      "spo": 714,
      "far": 715,
      "fect": 716,
      "sch": 717,
      "real": 718,
      "vel": 719,
      "cle": 720,
      "analysts": 721,
      "cond": 722,
      "verage": 723,
      "fil": 724,
      "clo": 725,
      "amp": 726,
      "closed": 727,
      "sear": 728,
      "ric": 729,
      "vie": 730,
      "contro": 731,
      "sel": 732,
      "proble": 733,
      "insur": 734,
      "dollar": 735,
      "cred": 736,
      "ning": 737,
      "les": 738,
      "days": 739,
      "ian": 740,
      "rates": 741,
      "itut": 742,
      "firm": 743,
      "ner": 744,
      "point": 745,
      "kes": 746,
      "ase": 747,
      "manag": 748,
      "led": 749,
      "sign": 750,
      "consu": 751,
      "japanese": 752,
      "against": 753,
      "does": 754,
      "income": 755,
      "adv": 756,
      "soci": 757,
      "show": 758,
      "ick": 759,
      "issue": 760,
      "mat": 761,
      "reven": 762,
      "peri": 763,
      "four": 764,
      "ics": 765,
      "products": 766,
      "used": 767,
      "requ": 768,
      "ween": 769,
      "head": 770,
      "world": 771,
      "char": 772,
      "estim": 773,
      "ending": 774,
      "between": 775,
      "fell": 776,
      "land": 777,
      "accor": 778,
      "both": 779,
      "where": 780,
      "ports": 781,
      "congress": 782,
      "ional": 783,
      "lower": 784,
      "employ": 785,
      "ative": 786,
      "ily": 787,
      "vent": 788,
      "let": 789,
      "commit": 790,
      "ry": 791,
      "depart": 792,
      "funds": 793,
      "ces": 794,
      "markets": 795,
      "elect": 796,
      "istr": 797,
      "revenue": 798,
      "based": 799,
      "ves": 800,
      "computer": 801,
      "court": 802,
      "view": 803,
      "brit": 804,
      "search": 805,
      "international": 806,
      "close": 807,
      "then": 808,
      "should": 809,
      "small": 810,
      "develop": 811,
      "ues": 812,
      "ann": 813,
      "aid": 814,
      "average": 815,
      "fl": 816,
      "tech": 817,
      "drop": 818,
      "ful": 819,
      "during": 820,
      "eu": 821,
      "ministr": 822,
      "wr": 823,
      "stre": 824,
      "lines": 825,
      "another": 826,
      "foreign": 827,
      "credit": 828,
      "agree": 829,
      "purch": 830,
      "ied": 831,
      "ten": 832,
      "total": 833,
      "higher": 834,
      "spokes": 835,
      "rel": 836,
      "reported": 837,
      "debt": 838,
      "ists": 839,
      "sever": 840,
      "mor": 841,
      "common": 842,
      "how": 843,
      "redu": 844,
      "commun": 845,
      "sou": 846,
      "including": 847,
      "among": 848,
      "ib": 849,
      "vice": 850,
      "ants": 851,
      "being": 852,
      "each": 853,
      "hn": 854,
      "him": 855,
      "according": 856,
      "euro": 857,
      "insurance": 858,
      "anno": 859,
      "need": 860,
      "announ": 861,
      "col": 862,
      "ep": 863,
      "san": 864,
      "trade": 865,
      "sider": 866,
      "dif": 867,
      "reed": 868,
      "remain": 869,
      "polit": 870,
      "manage": 871,
      "pers": 872,
      "research": 873,
      "agen": 874,
      "associ": 875,
      "alth": 876,
      "use": 877,
      "past": 878,
      "ular": 879,
      "operations": 880,
      "five": 881,
      "lit": 882,
      "llow": 883,
      "rece": 884,
      "ior": 885,
      "num": 886,
      "department": 887,
      "look": 888,
      "sale": 889,
      "ibut": 890,
      "wever": 891,
      "accoun": 892,
      "however": 893,
      "institut": 894,
      "tak": 895,
      "ben": 896,
      "sim": 897,
      "ange": 898,
      "ern": 899,
      "addition": 900,
      "sold": 901,
      "plans": 902,
      "want": 903,
      "ward": 904,
      "certain": 905,
      "economic": 906,
      "hu": 907,
      "move": 908,
      "ving": 909,
      "tele": 910,
      "meet": 911,
      "press": 912,
      "tim": 913,
      "yo": 914,
      "help": 915,
      "fur": 916,
      "holders": 917,
      "management": 918,
      "consider": 919,
      "every": 920,
      "hal": 921,
      "think": 922,
      "iday": 923,
      "europe": 924,
      "ask": 925,
      "second": 926,
      "growth": 927,
      "home": 928,
      "corpor": 929,
      "treas": 930,
      "ready": 931,
      "mot": 932,
      "issues": 933,
      "increase": 934,
      "term": 935,
      "bush": 936,
      "ga": 937,
      "aper": 938,
      "struct": 939,
      "jud": 940,
      "met": 941,
      "banks": 942,
      "vious": 943,
      "several": 944,
      "mers": 945,
      "yen": 946,
      "return": 947,
      "sted": 948,
      "viet": 949,
      "pet": 950,
      "asse": 951,
      "oil": 952,
      "called": 953,
      "ceed": 954,
      "eng": 955,
      "sol": 956,
      "due": 957,
      "news": 958,
      "follow": 959,
      "tail": 960,
      "east": 961,
      "posed": 962,
      "franc": 963,
      "john": 964,
      "power": 965,
      "ired": 966,
      "treasury": 967,
      "bar": 968,
      "few": 969,
      "pon": 970,
      "row": 971,
      "suc": 972,
      "tee": 973,
      "play": 974,
      "ref": 975,
      "ins": 976,
      "control": 977,
      "street": 978,
      "sl": 979,
      "trans": 980,
      "health": 981,
      "polic": 982,
      "cash": 983,
      "io": 984,
      "old": 985,
      "administr": 986,
      "compet": 987,
      "level": 988,
      "sure": 989,
      "costs": 990,
      "annual": 991,
      "might": 992,
      "aren": 993,
      "mi": 994,
      "strong": 995,
      "friday": 996,
      "dam": 997,
      "ising": 998,
      "aff": 999,
      "support": 1000,
      "city": 1001,
      "hand": 1002,
      "ks": 1003,
      "open": 1004,
      "director": 1005,
      "quake": 1006,
      "traders": 1007,
      "number": 1008,
      "see": 1009,
      "beli": 1010,
      "del": 1011,
      "ved": 1012,
      "recor": 1013,
      "six": 1014,
      "ones": 1015,
      "dem": 1016,
      "soviet": 1017,
      "futures": 1018,
      "nam": 1019,
      "wa": 1020,
      "ised": 1021,
      "office": 1022,
      "added": 1023,
      "special": 1024,
      "run": 1025,
      "ifor": 1026,
      "former": 1027,
      "califor": 1028,
      "effect": 1029,
      "californ": 1030,
      "ford": 1031,
      "ately": 1032,
      "possi": 1033,
      "fam": 1034,
      "clear": 1035,
      "oc": 1036,
      "vol": 1037,
      "officer": 1038,
      "ship": 1039,
      "short": 1040,
      "brok": 1041,
      "ufact": 1042,
      "already": 1043,
      "manufact": 1044,
      "test": 1045,
      "previous": 1046,
      "services": 1047,
      "az": 1048,
      "amo": 1049,
      "least": 1050,
      "assets": 1051,
      "record": 1052,
      "california": 1053,
      "ply": 1054,
      "wall": 1055,
      "operating": 1056,
      "ious": 1057,
      "onal": 1058,
      "spokesman": 1059,
      "als": 1060,
      "commer": 1061,
      "resul": 1062,
      "agency": 1063,
      "half": 1064,
      "oct": 1065,
      "partic": 1066,
      "british": 1067,
      "going": 1068,
      "start": 1069,
      "too": 1070,
      "gest": 1071,
      "case": 1072,
      "cli": 1073,
      "ized": 1074,
      "value": 1075,
      "men": 1076,
      "mber": 1077,
      "ptem": 1078,
      "septem": 1079,
      "september": 1080,
      "fac": 1081,
      "same": 1082,
      "declin": 1083,
      "mach": 1084,
      "my": 1085,
      "ission": 1086,
      "until": 1087,
      "period": 1088,
      "cla": 1089,
      "ential": 1090,
      "auto": 1091,
      "union": 1092,
      "stake": 1093,
      "south": 1094,
      "sw": 1095,
      "ug": 1096,
      "pric": 1097,
      "approv": 1098,
      "ators": 1099,
      "agreement": 1100,
      "likely": 1101,
      "today": 1102,
      "project": 1103,
      "little": 1104,
      "committee": 1105,
      "ued": 1106,
      "vir": 1107,
      "maker": 1108,
      "claim": 1109,
      "mil": 1110,
      "here": 1111,
      "cl": 1112,
      "ss": 1113,
      "distr": 1114,
      "effor": 1115,
      "cus": 1116,
      "spec": 1117,
      "aug": 1118,
      "gold": 1119,
      "ights": 1120,
      "fall": 1121,
      "cept": 1122,
      "priv": 1123,
      "custo": 1124,
      "whe": 1125,
      "comple": 1126,
      "present": 1127,
      "came": 1128,
      "stud": 1129,
      "service": 1130,
      "know": 1131,
      "aro": 1132,
      "agreed": 1133,
      "bert": 1134,
      "order": 1135,
      "vers": 1136,
      "canad": 1137,
      "der": 1138,
      "nolo": 1139,
      "position": 1140,
      "technolo": 1141,
      "ense": 1142,
      "estate": 1143,
      "drug": 1144,
      "earth": 1145,
      "demand": 1146,
      "ners": 1147,
      "reser": 1148,
      "results": 1149,
      "appro": 1150,
      "administration": 1151,
      "self": 1152,
      "sing": 1153,
      "ages": 1154,
      "vert": 1155,
      "enter": 1156,
      "without": 1157,
      "country": 1158,
      "employe": 1159,
      "ded": 1160,
      "right": 1161,
      "reach": 1162,
      "ney": 1163,
      "indic": 1164,
      "great": 1165,
      "mort": 1166,
      "economy": 1167,
      "acquis": 1168,
      "problems": 1169,
      "corporate": 1170,
      "around": 1171,
      "hip": 1172,
      "seem": 1173,
      "life": 1174,
      "offering": 1175,
      "clu": 1176,
      "hard": 1177,
      "firms": 1178,
      "junk": 1179,
      "top": 1180,
      "production": 1181,
      "regul": 1182,
      "mic": 1183,
      "ansa": 1184,
      "seek": 1185,
      "transa": 1186,
      "posal": 1187,
      "opt": 1188,
      "largest": 1189,
      "result": 1190,
      "loans": 1191,
      "import": 1192,
      "buying": 1193,
      "industrial": 1194,
      "policy": 1195,
      "care": 1196,
      "strate": 1197,
      "ends": 1198,
      "political": 1199,
      "fail": 1200,
      "demo": 1201,
      "dow": 1202,
      "democr": 1203,
      "although": 1204,
      "aged": 1205,
      "place": 1206,
      "changes": 1207,
      "increased": 1208,
      "whether": 1209,
      "wat": 1210,
      "memb": 1211,
      "compared": 1212,
      "members": 1213,
      "gas": 1214,
      "sy": 1215,
      "allow": 1216,
      "notes": 1217,
      "ought": 1218,
      "ways": 1219,
      "recently": 1220,
      "arent": 1221,
      "cover": 1222,
      "nov": 1223,
      "held": 1224,
      "ob": 1225,
      "proposal": 1226,
      "ult": 1227,
      "further": 1228,
      "bur": 1229,
      "side": 1230,
      "begin": 1231,
      "ints": 1232,
      "gains": 1233,
      "mortg": 1234,
      "fig": 1235,
      "ru": 1236,
      "abor": 1237,
      "found": 1238,
      "den": 1239,
      "wide": 1240,
      "force": 1241,
      "plant": 1242,
      "ived": 1243,
      "volu": 1244,
      "proper": 1245,
      "fic": 1246,
      "ash": 1247,
      "ames": 1248,
      "monday": 1249,
      "yet": 1250,
      "ata": 1251,
      "continue": 1252,
      "standing": 1253,
      "lond": 1254,
      "nat": 1255,
      "isco": 1256,
      "london": 1257,
      "cast": 1258,
      "ot": 1259,
      "ications": 1260,
      "quest": 1261,
      "invol": 1262,
      "losses": 1263,
      "blo": 1264,
      "points": 1265,
      "takeover": 1266,
      "volume": 1267,
      "systems": 1268,
      "fu": 1269,
      "ime": 1270,
      "ild": 1271,
      "loan": 1272,
      "limit": 1273,
      "posite": 1274,
      "august": 1275,
      "paper": 1276,
      "sug": 1277,
      "ltd": 1278,
      "selling": 1279,
      "data": 1280,
      "itions": 1281,
      "ability": 1282,
      "subsid": 1283,
      "differ": 1284,
      "bor": 1285,
      "gre": 1286,
      "ri": 1287,
      "ston": 1288,
      "judge": 1289,
      "must": 1290,
      "ned": 1291,
      "tex": 1292,
      "ines": 1293,
      "ington": 1294,
      "fis": 1295,
      "mean": 1296,
      "action": 1297,
      "commission": 1298,
      "expects": 1299,
      "divid": 1300,
      "benef": 1301,
      "priced": 1302,
      "free": 1303,
      "suit": 1304,
      "trust": 1305,
      "food": 1306,
      "keep": 1307,
      "cit": 1308,
      "slow": 1309,
      "times": 1310,
      "pack": 1311,
      "activ": 1312,
      "possible": 1313,
      "hear": 1314,
      "mag": 1315,
      "announced": 1316,
      "declined": 1317,
      "earthquake": 1318,
      "meas": 1319,
      "ually": 1320,
      "workers": 1321,
      "purchase": 1322,
      "white": 1323,
      "ize": 1324,
      "ization": 1325,
      "technology": 1326,
      "fiscal": 1327,
      "rul": 1328,
      "lot": 1329,
      "ivers": 1330,
      "writ": 1331,
      "orders": 1332,
      "francisco": 1333,
      "agu": 1334,
      "igation": 1335,
      "weeks": 1336,
      "senate": 1337,
      "chem": 1338,
      "advert": 1339,
      "prom": 1340,
      "respon": 1341,
      "making": 1342,
      "dy": 1343,
      "senior": 1344,
      "bs": 1345,
      "paid": 1346,
      "become": 1347,
      "composite": 1348,
      "bit": 1349,
      "businesses": 1350,
      "problem": 1351,
      "development": 1352,
      "commercial": 1353,
      "sci": 1354,
      "chin": 1355,
      "reflect": 1356,
      "area": 1357,
      "sum": 1358,
      "ably": 1359,
      "give": 1360,
      "coup": 1361,
      "organ": 1362,
      "comment": 1363,
      "estimated": 1364,
      "nal": 1365,
      "nearly": 1366,
      "usu": 1367,
      "makers": 1368,
      "building": 1369,
      "dou": 1370,
      "wash": 1371,
      "series": 1372,
      "association": 1373,
      "chemical": 1374,
      "icago": 1375,
      "chicago": 1376,
      "na": 1377,
      "stead": 1378,
      "rest": 1379,
      "prote": 1380,
      "legis": 1381,
      "democrat": 1382,
      "bal": 1383,
      "took": 1384,
      "prove": 1385,
      "bre": 1386,
      "ds": 1387,
      "hur": 1388,
      "ung": 1389,
      "ample": 1390,
      "nine": 1391,
      "retail": 1392,
      "ley": 1393,
      "lawy": 1394,
      "employees": 1395,
      "jones": 1396,
      "your": 1397,
      "tel": 1398,
      "holding": 1399,
      "ft": 1400,
      "tv": 1401,
      "seas": 1402,
      "shar": 1403,
      "broad": 1404,
      "attr": 1405,
      "auth": 1406,
      "standard": 1407,
      "ron": 1408,
      "rup": 1409,
      "ivid": 1410,
      "fran": 1411,
      "decline": 1412,
      "design": 1413,
      "hour": 1414,
      "partners": 1415,
      "ither": 1416,
      "labor": 1417,
      "rights": 1418,
      "bud": 1419,
      "risk": 1420,
      "often": 1421,
      "tober": 1422,
      "later": 1423,
      "latest": 1424,
      "october": 1425,
      "amount": 1426,
      "eas": 1427,
      "pac": 1428,
      "inform": 1429,
      "process": 1430,
      "example": 1431,
      "offered": 1432,
      "individ": 1433,
      "success": 1434,
      "acquisition": 1435,
      "individual": 1436,
      "sent": 1437,
      "tues": 1438,
      "america": 1439,
      "meeting": 1440,
      "tuesday": 1441,
      "ging": 1442,
      "pat": 1443,
      "reason": 1444,
      "da": 1445,
      "rich": 1446,
      "sit": 1447,
      "texas": 1448,
      "pite": 1449,
      "weak": 1450,
      "despite": 1451,
      "pot": 1452,
      "changed": 1453,
      "provid": 1454,
      "currently": 1455,
      "giv": 1456,
      "represent": 1457,
      "others": 1458,
      "executives": 1459,
      "budget": 1460,
      "rise": 1461,
      "once": 1462,
      "ross": 1463,
      "proposed": 1464,
      "heav": 1465,
      "steel": 1466,
      "washington": 1467,
      "pacific": 1468,
      "ool": 1469,
      "une": 1470,
      "tra": 1471,
      "never": 1472,
      "better": 1473,
      "school": 1474,
      "ural": 1475,
      "nego": 1476,
      "got": 1477,
      "negoti": 1478,
      "win": 1479,
      "univers": 1480,
      "cho": 1481,
      "investor": 1482,
      "build": 1483,
      "king": 1484,
      "kno": 1485,
      "spending": 1486,
      "future": 1487,
      "author": 1488,
      "deli": 1489,
      "geor": 1490,
      "private": 1491,
      "ju": 1492,
      "pan": 1493,
      "ster": 1494,
      "almost": 1495,
      "robert": 1496,
      "19": 1497,
      "ator": 1498,
      "publish": 1499,
      "cret": 1500,
      "communications": 1501,
      "received": 1502,
      "damage": 1503,
      "via": 1504,
      "terms": 1505,
      "legal": 1506,
      "states": 1507,
      "ically": 1508,
      "appear": 1509,
      "named": 1510,
      "mortgage": 1511,
      "rupt": 1512,
      "restruct": 1513,
      "phone": 1514,
      "magaz": 1515,
      "role": 1516,
      "particular": 1517,
      "ko": 1518,
      "rep": 1519,
      "charge": 1520,
      "ctions": 1521,
      "black": 1522,
      "filed": 1523,
      "customers": 1524,
      "tok": 1525,
      "within": 1526,
      "decision": 1527,
      "equip": 1528,
      "information": 1529,
      "dre": 1530,
      "ilities": 1531,
      "boo": 1532,
      "appe": 1533,
      "include": 1534,
      "defense": 1535,
      "camp": 1536,
      "init": 1537,
      "ety": 1538,
      "division": 1539,
      "tell": 1540,
      "financing": 1541,
      "ath": 1542,
      "ling": 1543,
      "che": 1544,
      "purchas": 1545,
      "subsidi": 1546,
      "ix": 1547,
      "pen": 1548,
      "enough": 1549,
      "began": 1550,
      "crit": 1551,
      "continued": 1552,
      "wed": 1553,
      "post": 1554,
      "woman": 1555,
      "network": 1556,
      "struction": 1557,
      "mid": 1558,
      "icip": 1559,
      "outstanding": 1560,
      "trying": 1561,
      "infl": 1562,
      "orney": 1563,
      "envir": 1564,
      "told": 1565,
      "ively": 1566,
      "banking": 1567,
      "attorney": 1568,
      "equipment": 1569,
      "environ": 1570,
      "ral": 1571,
      "oft": 1572,
      "equity": 1573,
      "full": 1574,
      "face": 1575,
      "colu": 1576,
      "local": 1577,
      "mod": 1578,
      "lio": 1579,
      "folio": 1580,
      "portfolio": 1581,
      "industries": 1582,
      "warner": 1583,
      "ale": 1584,
      "mental": 1585,
      "consumer": 1586,
      "dropped": 1587,
      "potential": 1588,
      "hous": 1589,
      "james": 1590,
      "ple": 1591,
      "sc": 1592,
      "icit": 1593,
      "secret": 1594,
      "joint": 1595,
      "makes": 1596,
      "programs": 1597,
      "united": 1598,
      "dollars": 1599,
      "0s": 1600,
      "har": 1601,
      "computers": 1602,
      "transaction": 1603,
      "july": 1604,
      "ctor": 1605,
      "ordin": 1606,
      "european": 1607,
      "dav": 1608,
      "separ": 1609,
      "adjust": 1610,
      "abort": 1611,
      "using": 1612,
      "finance": 1613,
      "step": 1614,
      "signific": 1615,
      "account": 1616,
      "following": 1617,
      "broker": 1618,
      "away": 1619,
      "jagu": 1620,
      "vision": 1621,
      "best": 1622,
      "ift": 1623,
      "provide": 1624,
      "western": 1625,
      "consult": 1626,
      "ibuted": 1627,
      "tokyo": 1628,
      "inflation": 1629,
      "jaguar": 1630,
      "ran": 1631,
      "sco": 1632,
      "trou": 1633,
      "improve": 1634,
      "find": 1635,
      "settle": 1636,
      "additional": 1637,
      "gm": 1638,
      "sed": 1639,
      "soon": 1640,
      "calls": 1641,
      "managers": 1642,
      "personal": 1643,
      "gg": 1644,
      "shareholders": 1645,
      "leaders": 1646,
      "important": 1647,
      "known": 1648,
      "aw": 1649,
      "eve": 1650,
      "tar": 1651,
      "instead": 1652,
      "ution": 1653,
      "charges": 1654,
      "family": 1655,
      "claims": 1656,
      "university": 1657,
      "field": 1658,
      "units": 1659,
      "bell": 1660,
      "coming": 1661,
      "tru": 1662,
      "avail": 1663,
      "spect": 1664,
      "soft": 1665,
      "ys": 1666,
      "stic": 1667,
      "abo": 1668,
      "ified": 1669,
      "produc": 1670,
      "ness": 1671,
      "sour": 1672,
      "things": 1673,
      "construction": 1674,
      "march": 1675,
      "sched": 1676,
      "taken": 1677,
      "significant": 1678,
      "pend": 1679,
      "range": 1680,
      "ilar": 1681,
      "prob": 1682,
      "compl": 1683,
      "marketing": 1684,
      "dealers": 1685,
      "manager": 1686,
      "similar": 1687,
      "pil": 1688,
      "tries": 1689,
      "pract": 1690,
      "perfor": 1691,
      "ties": 1692,
      "itor": 1693,
      "brand": 1694,
      "bills": 1695,
      "asked": 1696,
      "engine": 1697,
      "mc": 1698,
      "isions": 1699,
      "ulation": 1700,
      "increasing": 1701,
      "cir": 1702,
      "night": 1703,
      "rev": 1704,
      "attem": 1705,
      "ensive": 1706,
      "june": 1707,
      "whose": 1708,
      "calif": 1709,
      "base": 1710,
      "north": 1711,
      "believe": 1712,
      "happ": 1713,
      "miss": 1714,
      "ping": 1715,
      "pass": 1716,
      "ane": 1717,
      "ison": 1718,
      "sept": 1719,
      "advertising": 1720,
      "above": 1721,
      "below": 1722,
      "experi": 1723,
      "lies": 1724,
      "body": 1725,
      "raise": 1726,
      "flo": 1727,
      "ters": 1728,
      "sav": 1729,
      "lost": 1730,
      "posted": 1731,
      "marks": 1732,
      "getting": 1733,
      "related": 1734,
      "question": 1735,
      "vict": 1736,
      "thr": 1737,
      "ched": 1738,
      "team": 1739,
      "emer": 1740,
      "space": 1741,
      "medi": 1742,
      "slight": 1743,
      "china": 1744,
      "available": 1745,
      "pact": 1746,
      "pred": 1747,
      "stores": 1748,
      "ips": 1749,
      "discus": 1750,
      "rather": 1751,
      "german": 1752,
      "fourth": 1753,
      "class": 1754,
      "hit": 1755,
      "jum": 1756,
      "idence": 1757,
      "contracts": 1758,
      "require": 1759,
      "owners": 1760,
      "included": 1761,
      "security": 1762,
      "electron": 1763,
      "cation": 1764,
      "mes": 1765,
      "stant": 1766,
      "appoint": 1767,
      "margin": 1768,
      "ival": 1769,
      "boston": 1770,
      "options": 1771,
      "figures": 1772,
      "restructuring": 1773,
      "republic": 1774,
      "reports": 1775,
      "alter": 1776,
      "quick": 1777,
      "mrs": 1778,
      "volat": 1779,
      "phil": 1780,
      "subsidiary": 1781,
      "hop": 1782,
      "left": 1783,
      "ister": 1784,
      "noted": 1785,
      "believ": 1786,
      "organization": 1787,
      "ism": 1788,
      "secut": 1789,
      "resign": 1790,
      "working": 1791,
      "meanwhile": 1792,
      "bad": 1793,
      "nes": 1794,
      "book": 1795,
      "center": 1796,
      "countries": 1797,
      "diffic": 1798,
      "manufactur": 1799,
      "canada": 1800,
      "iam": 1801,
      "stop": 1802,
      "along": 1803,
      "arily": 1804,
      "william": 1805,
      "prefer": 1806,
      "angeles": 1807,
      "effort": 1808,
      "dividend": 1809,
      "abortion": 1810,
      "savings": 1811,
      "bought": 1812,
      "vis": 1813,
      "itary": 1814,
      "itself": 1815,
      "express": 1816,
      "dome": 1817,
      "bled": 1818,
      "cases": 1819,
      "statement": 1820,
      "approved": 1821,
      "probably": 1822,
      "hist": 1823,
      "lish": 1824,
      "staff": 1825,
      "expl": 1826,
      "pop": 1827,
      "percent": 1828,
      "growing": 1829,
      "ibm": 1830,
      "block": 1831,
      "break": 1832,
      "lawyers": 1833,
      "thur": 1834,
      "seven": 1835,
      "david": 1836,
      "kid": 1837,
      "uation": 1838,
      "road": 1839,
      "rodu": 1840,
      "lyn": 1841,
      "cell": 1842,
      "key": 1843,
      "introdu": 1844,
      "increases": 1845,
      "gained": 1846,
      "reached": 1847,
      "secretary": 1848,
      "restr": 1849,
      "ody": 1850,
      "airlines": 1851,
      "operation": 1852,
      "cars": 1853,
      "payments": 1854,
      "colle": 1855,
      "transport": 1856,
      "efforts": 1857,
      "bay": 1858,
      "either": 1859,
      "fast": 1860,
      "ham": 1861,
      "child": 1862,
      "thern": 1863,
      "hol": 1864,
      "germany": 1865,
      "advanc": 1866,
      "domestic": 1867,
      "list": 1868,
      "independ": 1869,
      "deficit": 1870,
      "announce": 1871,
      "jour": 1872,
      "near": 1873,
      "cop": 1874,
      "pound": 1875,
      "feel": 1876,
      "talks": 1877,
      "fully": 1878,
      "name": 1879,
      "journal": 1880,
      "rill": 1881,
      "ories": 1882,
      "proceed": 1883,
      "ension": 1884,
      "reduce": 1885,
      "taking": 1886,
      "performan": 1887,
      "uary": 1888,
      "rele": 1889,
      "ened": 1890,
      "arbit": 1891,
      "icle": 1892,
      "having": 1893,
      "saying": 1894,
      "cru": 1895,
      "groups": 1896,
      "leading": 1897,
      "venture": 1898,
      "previously": 1899,
      "reserve": 1900,
      "different": 1901,
      "boost": 1902,
      "arbitr": 1903,
      "parent": 1904,
      "comb": 1905,
      "plun": 1906,
      "party": 1907,
      "counter": 1908,
      "typ": 1909,
      "telephone": 1910,
      "approval": 1911,
      "given": 1912,
      "ever": 1913,
      "fear": 1914,
      "mal": 1915,
      "thom": 1916,
      "ener": 1917,
      "conver": 1918,
      "termin": 1919,
      "looking": 1920,
      "eastern": 1921,
      "succeed": 1922,
      "suggest": 1923,
      "fair": 1924,
      "erial": 1925,
      "lled": 1926,
      "owned": 1927,
      "profits": 1928,
      "guar": 1929,
      "backed": 1930,
      "mbia": 1931,
      "material": 1932,
      "manufacturing": 1933,
      "frank": 1934,
      "initial": 1935,
      "schedul": 1936,
      "gl": 1937,
      "doing": 1938,
      "active": 1939,
      "biggest": 1940,
      "canadian": 1941,
      "green": 1942,
      "target": 1943,
      "room": 1944,
      "investments": 1945,
      "helped": 1946,
      "acquired": 1947,
      "goods": 1948,
      "slightly": 1949,
      "gi": 1950,
      "itive": 1951,
      "coll": 1952,
      "poor": 1953,
      "bankrupt": 1954,
      "raised": 1955,
      "directors": 1956,
      "strategy": 1957,
      "aign": 1958,
      "jan": 1959,
      "dest": 1960,
      "depos": 1961,
      "discoun": 1962,
      "machines": 1963,
      "measure": 1964,
      "campaign": 1965,
      "ike": 1966,
      "ni": 1967,
      "sk": 1968,
      "ware": 1969,
      "why": 1970,
      "imum": 1971,
      "plants": 1972,
      "profess": 1973,
      "person": 1974,
      "institute": 1975,
      "television": 1976,
      "military": 1977,
      "percentage": 1978,
      "threat": 1979,
      "confer": 1980,
      "stral": 1981,
      "plac": 1982,
      "austral": 1983,
      "airline": 1984,
      "medical": 1985,
      "clients": 1986,
      "seeking": 1987,
      "performance": 1988,
      "guaran": 1989,
      "lation": 1990,
      "limin": 1991,
      "surpr": 1992,
      "electric": 1993,
      "britain": 1994,
      "study": 1995,
      "property": 1996,
      "heavy": 1997,
      "energy": 1998,
      "jr": 1999,
      "alle": 2000,
      "interests": 2001,
      "selves": 2002,
      "single": 2003,
      "cies": 2004,
      "fav": 2005,
      "mass": 2006,
      "ero": 2007,
      "ences": 2008,
      "argu": 2009,
      "something": 2010,
      "minor": 2011,
      "currency": 2012,
      "estimates": 2013,
      "remains": 2014,
      "mix": 2015,
      "failed": 2016,
      "magazine": 2017,
      "particularly": 2018,
      "ball": 2019,
      "tend": 2020,
      "var": 2021,
      "went": 2022,
      "inal": 2023,
      "reco": 2024,
      "edu": 2025,
      "fees": 2026,
      "premi": 2027,
      "gener": 2028,
      "job": 2029,
      "levels": 2030,
      "wait": 2031,
      "famil": 2032,
      "completed": 2033,
      "limited": 2034,
      "bankruptcy": 2035,
      "hong": 2036,
      "kind": 2037,
      "conf": 2038,
      "suf": 2039,
      "hael": 2040,
      "affect": 2041,
      "vote": 2042,
      "includes": 2043,
      "attle": 2044,
      "advis": 2045,
      "michael": 2046,
      "complain": 2047,
      "difficult": 2048,
      "gn": 2049,
      "rat": 2050,
      "treat": 2051,
      "espe": 2052,
      "que": 2053,
      "quo": 2054,
      "push": 2055,
      "substant": 2056,
      "young": 2057,
      "district": 2058,
      "activity": 2059,
      "legislation": 2060,
      "substantial": 2061,
      "fren": 2062,
      "reti": 2063,
      "toward": 2064,
      "comes": 2065,
      "mex": 2066,
      "merrill": 2067,
      "holder": 2068,
      "maintain": 2069,
      "event": 2070,
      "columbia": 2071,
      "attempt": 2072,
      "bach": 2073,
      "dig": 2074,
      "stat": 2075,
      "exist": 2076,
      "viol": 2077,
      "nas": 2078,
      "wants": 2079,
      "ering": 2080,
      "commod": 2081,
      "accept": 2082,
      "newsp": 2083,
      "ify": 2084,
      "pread": 2085,
      "fri": 2086,
      "else": 2087,
      "surve": 2088,
      "parts": 2089,
      "assist": 2090,
      "apparent": 2091,
      "expand": 2092,
      "institutions": 2093,
      "solid": 2094,
      "reserves": 2095,
      "member": 2096,
      "qual": 2097,
      "prim": 2098,
      "concerns": 2099,
      "huge": 2100,
      "onald": 2101,
      "responsi": 2102,
      "scient": 2103,
      "independent": 2104,
      "scr": 2105,
      "ino": 2106,
      "bring": 2107,
      "brid": 2108,
      "owns": 2109,
      "motor": 2110,
      "water": 2111,
      "involved": 2112,
      "lynch": 2113,
      "scheduled": 2114,
      "kong": 2115,
      "really": 2116,
      "outside": 2117,
      "anta": 2118,
      "pressure": 2119,
      "buyers": 2120,
      "issued": 2121,
      "particip": 2122,
      "covered": 2123,
      "transportation": 2124,
      "ril": 2125,
      "always": 2126,
      "tou": 2127,
      "bear": 2128,
      "shop": 2129,
      "april": 2130,
      "quart": 2131,
      "basis": 2132,
      "brother": 2133,
      "subject": 2134,
      "longer": 2135,
      "human": 2136,
      "strateg": 2137,
      "truck": 2138,
      "producers": 2139,
      "quarters": 2140,
      "30": 2141,
      "dail": 2142,
      "fix": 2143,
      "lar": 2144,
      "ined": 2145,
      "nel": 2146,
      "decid": 2147,
      "cially": 2148,
      "leader": 2149,
      "delay": 2150,
      "environmental": 2151,
      "brokerage": 2152,
      "especially": 2153,
      "daily": 2154,
      "avo": 2155,
      "itors": 2156,
      "means": 2157,
      "princ": 2158,
      "prime": 2159,
      "usually": 2160,
      "canc": 2161,
      "mas": 2162,
      "pain": 2163,
      "item": 2164,
      "ises": 2165,
      "ablish": 2166,
      "establish": 2167,
      "crim": 2168,
      "disclosed": 2169,
      "adds": 2170,
      "worth": 2171,
      "themselves": 2172,
      "acquire": 2173,
      "competition": 2174,
      "projects": 2175,
      "richard": 2176,
      "favor": 2177,
      "ient": 2178,
      "lack": 2179,
      "xel": 2180,
      "areas": 2181,
      "const": 2182,
      "conserv": 2183,
      "impact": 2184,
      "auction": 2185,
      "central": 2186,
      "ances": 2187,
      "drexel": 2188,
      "arbitrage": 2189,
      "conference": 2190,
      "pick": 2191,
      "sat": 2192,
      "ills": 2193,
      "note": 2194,
      "holdings": 2195,
      "largely": 2196,
      "estimate": 2197,
      "started": 2198,
      "hours": 2199,
      "nav": 2200,
      "immedi": 2201,
      "forecast": 2202,
      "enses": 2203,
      "supply": 2204,
      "reduced": 2205,
      "brokers": 2206,
      "seems": 2207,
      "french": 2208,
      "light": 2209,
      "reau": 2210,
      "fort": 2211,
      "bureau": 2212,
      "laun": 2213,
      "course": 2214,
      "majority": 2215,
      "morgan": 2216,
      "accounts": 2217,
      "rules": 2218,
      "thus": 2219,
      "recess": 2220,
      "stu": 2221,
      "exclu": 2222,
      "necess": 2223,
      "aps": 2224,
      "tible": 2225,
      "congressional": 2226,
      "needed": 2227,
      "wednes": 2228,
      "quickly": 2229,
      "wednesday": 2230,
      "review": 2231,
      "seen": 2232,
      "detail": 2233,
      "prosecut": 2234,
      "liqu": 2235,
      "interview": 2236,
      "distribut": 2237,
      "settlement": 2238,
      "survey": 2239,
      "fixed": 2240,
      "cam": 2241,
      "done": 2242,
      "van": 2243,
      "ang": 2244,
      "sector": 2245,
      "dece": 2246,
      "pri": 2247,
      "traded": 2248,
      "generally": 2249,
      "yields": 2250,
      "community": 2251,
      "peters": 2252,
      "appropri": 2253,
      "december": 2254,
      "cing": 2255,
      "flu": 2256,
      "ii": 2257,
      "chr": 2258,
      "chain": 2259,
      "death": 2260,
      "iring": 2261,
      "exper": 2262,
      "lied": 2263,
      "crash": 2264,
      "letter": 2265,
      "benefit": 2266,
      "volatility": 2267,
      "manufacturers": 2268,
      "cat": 2269,
      "sday": 2270,
      "stay": 2271,
      "roll": 2272,
      "earson": 2273,
      "shearson": 2274,
      "model": 2275,
      "trial": 2276,
      "women": 2277,
      "contain": 2278,
      "carry": 2279,
      "carri": 2280,
      "receive": 2281,
      "approach": 2282,
      "beginning": 2283,
      "thursday": 2284,
      "cil": 2285,
      "glo": 2286,
      "nic": 2287,
      "vil": 2288,
      "atives": 2289,
      "stren": 2290,
      "sec": 2291,
      "prospect": 2292,
      "social": 2293,
      "imports": 2294,
      "allen": 2295,
      "focus": 2296,
      "wood": 2297,
      "serious": 2298,
      "underwrit": 2299,
      "thought": 2300,
      "simply": 2301,
      "usual": 2302,
      "situation": 2303,
      "cancer": 2304,
      "streng": 2305,
      "eight": 2306,
      "asset": 2307,
      "plc": 2308,
      "store": 2309,
      "planned": 2310,
      "taxes": 2311,
      "turned": 2312,
      "media": 2313,
      "entertain": 2314,
      "natural": 2315,
      "protection": 2316,
      "convertible": 2317,
      "premium": 2318,
      "sess": 2319,
      "uing": 2320,
      "ark": 2321,
      "roy": 2322,
      "icted": 2323,
      "veraged": 2324,
      "filing": 2325,
      "wanted": 2326,
      "democratic": 2327,
      "history": 2328,
      "recession": 2329,
      "ahead": 2330,
      "cand": 2331,
      "pted": 2332,
      "rally": 2333,
      "ery": 2334,
      "atory": 2335,
      "veh": 2336,
      "required": 2337,
      "discuss": 2338,
      "haps": 2339,
      "nu": 2340,
      "ots": 2341,
      "pond": 2342,
      "rock": 2343,
      "veto": 2344,
      "became": 2345,
      "respond": 2346,
      "acy": 2347,
      "duct": 2348,
      "perhaps": 2349,
      "produce": 2350,
      "returns": 2351,
      "summer": 2352,
      "education": 2353,
      "aim": 2354,
      "fre": 2355,
      "tren": 2356,
      "moody": 2357,
      "acc": 2358,
      "aster": 2359,
      "aud": 2360,
      "caused": 2361,
      "draw": 2362,
      "guber": 2363,
      "closing": 2364,
      "tempor": 2365,
      "showed": 2366,
      "considered": 2367,
      "benefits": 2368,
      "partnership": 2369,
      "software": 2370,
      "advanced": 2371,
      "flow": 2372,
      "town": 2373,
      "bel": 2374,
      "aging": 2375,
      "exports": 2376,
      "resour": 2377,
      "anything": 2378,
      "france": 2379,
      "rought": 2380,
      "directly": 2381,
      "creditors": 2382,
      "travel": 2383,
      "delivery": 2384,
      "housing": 2385,
      "brothers": 2386,
      "christ": 2387,
      "fill": 2388,
      "gia": 2389,
      "pending": 2390,
      "ring": 2391,
      "rap": 2392,
      "relat": 2393,
      "atl": 2394,
      "ama": 2395,
      "host": 2396,
      "iega": 2397,
      "justice": 2398,
      "indeed": 2399,
      "supp": 2400,
      "noriega": 2401,
      "defend": 2402,
      "request": 2403,
      "francs": 2404,
      "hurt": 2405,
      "season": 2406,
      "georgia": 2407,
      "jumped": 2408,
      "preferred": 2409,
      "avoid": 2410,
      "princip": 2411,
      "card": 2412,
      "cbs": 2413,
      "wid": 2414,
      "log": 2415,
      "improv": 2416,
      "offset": 2417,
      "hope": 2418,
      "tradition": 2419,
      "bankers": 2420,
      "prevent": 2421,
      "max": 2422,
      "americans": 2423,
      "earned": 2424,
      "talk": 2425,
      "continuing": 2426,
      "climb": 2427,
      "floor": 2428,
      "entertainment": 2429,
      "donald": 2430,
      "fight": 2431,
      "ured": 2432,
      "nothing": 2433,
      "shareholder": 2434,
      "anticip": 2435,
      "minimum": 2436,
      "funding": 2437,
      "stein": 2438,
      "smith": 2439,
      "game": 2440,
      "george": 2441,
      "children": 2442,
      "ken": 2443,
      "toge": 2444,
      "aph": 2445,
      "aft": 2446,
      "merger": 2447,
      "announcement": 2448,
      "quality": 2449,
      "together": 2450,
      "don": 2451,
      "pit": 2452,
      "opport": 2453,
      "minister": 2454,
      "evidence": 2455,
      "built": 2456,
      "smaller": 2457,
      "spokeswoman": 2458,
      "machine": 2459,
      "pilots": 2460,
      "restrict": 2461,
      "digital": 2462,
      "constitut": 2463,
      "ville": 2464,
      "opportun": 2465,
      "ele": 2466,
      "ze": 2467,
      "indi": 2468,
      "resol": 2469,
      "determin": 2470,
      "irs": 2471,
      "prior": 2472,
      "article": 2473,
      "holds": 2474,
      "continues": 2475,
      "created": 2476,
      "himself": 2477,
      "complete": 2478,
      "sharply": 2479,
      "bon": 2480,
      "ier": 2481,
      "mur": 2482,
      "rad": 2483,
      "ried": 2484,
      "editor": 2485,
      "super": 2486,
      "moved": 2487,
      "acity": 2488,
      "aker": 2489,
      "partner": 2490,
      "overseas": 2491,
      "graph": 2492,
      "capacity": 2493,
      "ption": 2494,
      "legislat": 2495,
      "collap": 2496,
      "resources": 2497,
      "jury": 2498,
      "ny": 2499,
      "spr": 2500,
      "size": 2501,
      "won": 2502,
      "unchanged": 2503,
      "ici": 2504,
      "lying": 2505,
      "conne": 2506,
      "conduct": 2507,
      "actually": 2508,
      "feat": 2509,
      "payment": 2510,
      "tons": 2511,
      "developed": 2512,
      "hugo": 2513,
      "borrow": 2514,
      "source": 2515,
      "thrift": 2516,
      "liquid": 2517,
      "kill": 2518,
      "tre": 2519,
      "encour": 2520,
      "ased": 2521,
      "cons": 2522,
      "willing": 2523,
      "ground": 2524,
      "sense": 2525,
      "philip": 2526,
      "apparently": 2527,
      "ave": 2528,
      "erc": 2529,
      "entire": 2530,
      "defin": 2531,
      "exerc": 2532,
      "istic": 2533,
      "quarterly": 2534,
      "conditions": 2535,
      "regulators": 2536,
      "transactions": 2537,
      "questions": 2538,
      "broadcast": 2539,
      "kidder": 2540,
      "retire": 2541,
      "session": 2542,
      "civ": 2543,
      "mp": 2544,
      "wage": 2545,
      "reli": 2546,
      "forced": 2547,
      "across": 2548,
      "plus": 2549,
      "gency": 2550,
      "swit": 2551,
      "version": 2552,
      "promise": 2553,
      "designed": 2554,
      "hopes": 2555,
      "believes": 2556,
      "giant": 2557,
      "fle": 2558,
      "reject": 2559,
      "dev": 2560,
      "export": 2561,
      "extra": 2562,
      "moves": 2563,
      "pose": 2564,
      "gel": 2565,
      "bot": 2566,
      "closely": 2567,
      "protect": 2568,
      "kore": 2569,
      "popular": 2570,
      "decided": 2571,
      "bi": 2572,
      "blu": 2573,
      "dan": 2574,
      "ler": 2575,
      "ming": 2576,
      "recomm": 2577,
      "sach": 2578,
      "somet": 2579,
      "strike": 2580,
      "final": 2581,
      "partly": 2582,
      "minut": 2583,
      "produced": 2584,
      "circ": 2585,
      "explain": 2586,
      "battle": 2587,
      "hind": 2588,
      "ible": 2589,
      "mut": 2590,
      "uncertain": 2591,
      "orig": 2592,
      "ently": 2593,
      "behind": 2594,
      "except": 2595,
      "provision": 2596,
      "economists": 2597,
      "paying": 2598,
      "rising": 2599,
      "write": 2600,
      "associates": 2601,
      "running": 2602,
      "watch": 2603,
      "response": 2604,
      "coupon": 2605,
      "sharp": 2606,
      "separate": 2607,
      "brought": 2608,
      "nar": 2609,
      "star": 2610,
      "ention": 2611,
      "conclu": 2612,
      "agan": 2613,
      "modest": 2614,
      "wel": 2615,
      "live": 2616,
      "prep": 2617,
      "guide": 2618,
      "valued": 2619,
      "consumers": 2620,
      "shows": 2621,
      "january": 2622,
      "spread": 2623,
      "unless": 2624,
      "leveraged": 2625,
      "supre": 2626,
      "appl": 2627,
      "offices": 2628,
      "spent": 2629,
      "spend": 2630,
      "jobs": 2631,
      "sett": 2632,
      "sony": 2633,
      "ricane": 2634,
      "employment": 2635,
      "effective": 2636,
      "amoun": 2637,
      "allowed": 2638,
      "democrats": 2639,
      "hurricane": 2640,
      "newspaper": 2641,
      "friend": 2642,
      "supreme": 2643,
      "bber": 2644,
      "gor": 2645,
      "hman": 2646,
      "mun": 2647,
      "influ": 2648,
      "lear": 2649,
      "train": 2650,
      "kept": 2651,
      "idea": 2652,
      "expenses": 2653,
      "morning": 2654,
      "agencies": 2655,
      "peter": 2656,
      "followed": 2657,
      "opened": 2658,
      "specific": 2659,
      "rule": 2660,
      "ficient": 2661,
      "attract": 2662,
      "suffer": 2663,
      "bachev": 2664,
      "civil": 2665,
      "gorbachev": 2666,
      "municip": 2667,
      "ires": 2668,
      "inte": 2669,
      "stan": 2670,
      "ening": 2671,
      "lip": 2672,
      "actual": 2673,
      "disappoint": 2674,
      "debent": 2675,
      "possib": 2676,
      "emergency": 2677,
      "guarante": 2678,
      "alleged": 2679,
      "tough": 2680,
      "elimin": 2681,
      "onto": 2682,
      "saw": 2683,
      "access": 2684,
      "whole": 2685,
      "pretax": 2686,
      "bran": 2687,
      "park": 2688,
      "reduction": 2689,
      "discount": 2690,
      "bridge": 2691,
      "cable": 2692,
      "dut": 2693,
      "dink": 2694,
      "non": 2695,
      "pension": 2696,
      "ony": 2697,
      "seg": 2698,
      "seat": 2699,
      "whit": 2700,
      "moving": 2701,
      "acce": 2702,
      "aul": 2703,
      "figure": 2704,
      "package": 2705,
      "deliver": 2706,
      "victim": 2707,
      "various": 2708,
      "quoted": 2709,
      "mexic": 2710,
      "dinkins": 2711,
      "fred": 2712,
      "hut": 2713,
      "oun": 2714,
      "reagan": 2715,
      "ariz": 2716,
      "cher": 2717,
      "poll": 2718,
      "resident": 2719,
      "uses": 2720,
      "pret": 2721,
      "disput": 2722,
      "uel": 2723,
      "ished": 2724,
      "economist": 2725,
      "contribut": 2726,
      "warr": 2727,
      "farmers": 2728,
      "signed": 2729,
      "matter": 2730,
      "lett": 2731,
      "needs": 2732,
      "facilities": 2733,
      "introduced": 2734,
      "placed": 2735,
      "necessary": 2736,
      "mutual": 2737,
      "ey": 2738,
      "flat": 2739,
      "pict": 2740,
      "alli": 2741,
      "exceed": 2742,
      "moreover": 2743,
      "headquarters": 2744,
      "commerce": 2745,
      "critic": 2746,
      "spring": 2747,
      "wal": 2748,
      "decade": 2749,
      "county": 2750,
      "works": 2751,
      "poland": 2752,
      "regard": 2753,
      "instance": 2754,
      "gave": 2755,
      "greater": 2756,
      "activities": 2757,
      "ruling": 2758,
      "plunge": 2759,
      "hund": 2760,
      "jack": 2761,
      "qint": 2762,
      "rating": 2763,
      "thous": 2764,
      "icles": 2765,
      "section": 2766,
      "leave": 2767,
      "lehman": 2768,
      "print": 2769,
      "hotel": 2770,
      "trades": 2771,
      "mail": 2772,
      "matur": 2773,
      "elected": 2774,
      "ministry": 2775,
      "researchers": 2776,
      "johnson": 2777,
      "barrel": 2778,
      "option": 2779,
      "appears": 2780,
      "margins": 2781,
      "resigned": 2782,
      "hundred": 2783,
      "qintex": 2784,
      "thousand": 2785,
      "ease": 2786,
      "fire": 2787,
      "iar": 2788,
      "sports": 2789,
      "santa": 2790,
      "ona": 2791,
      "challen": 2792,
      "forces": 2793,
      "compar": 2794,
      "neg": 2795,
      "portion": 2796,
      "investig": 2797,
      "declines": 2798,
      "institutional": 2799,
      "takes": 2800,
      "separately": 2801,
      "australia": 2802,
      "familiar": 2803,
      "existing": 2804,
      "date": 2805,
      "fety": 2806,
      "niss": 2807,
      "instru": 2808,
      "sequ": 2809,
      "safety": 2810,
      "conn": 2811,
      "consolid": 2812,
      "suits": 2813,
      "track": 2814,
      "overall": 2815,
      "craft": 2816,
      "preci": 2817,
      "contributed": 2818,
      "valley": 2819,
      "machin": 2820,
      "obtain": 2821,
      "houses": 2822,
      "passed": 2823,
      "thomas": 2824,
      "branch": 2825,
      "nissan": 2826,
      "die": 2827,
      "og": 2828,
      "omon": 2829,
      "pie": 2830,
      "tum": 2831,
      "retain": 2832,
      "ets": 2833,
      "imes": 2834,
      "trader": 2835,
      "salomon": 2836,
      "crib": 2837,
      "managing": 2838,
      "southern": 2839,
      "widely": 2840,
      "appeal": 2841,
      "conservative": 2842,
      "sometimes": 2843,
      "baker": 2844,
      "slip": 2845,
      "leav": 2846,
      "susp": 2847,
      "teach": 2848,
      "doz": 2849,
      "cuts": 2850,
      "provisions": 2851,
      "create": 2852,
      "tests": 2853,
      "authority": 2854,
      "electronic": 2855,
      "candid": 2856,
      "narrow": 2857,
      "lou": 2858,
      "oh": 2859,
      "tw": 2860,
      "yond": 2861,
      "assu": 2862,
      "assum": 2863,
      "beyond": 2864,
      "mob": 2865,
      "opposition": 2866,
      "hosp": 2867,
      "merch": 2868,
      "subordin": 2869,
      "deals": 2870,
      "clean": 2871,
      "totaled": 2872,
      "indicated": 2873,
      "properties": 2874,
      "cited": 2875,
      "reflecting": 2876,
      "provided": 2877,
      "provides": 2878,
      "engineering": 2879,
      "electronics": 2880,
      "professional": 2881,
      "larger": 2882,
      "relatively": 2883,
      "improved": 2884,
      "debentures": 2885,
      "hospital": 2886,
      "mill": 2887,
      "ination": 2888,
      "chip": 2889,
      "goes": 2890,
      "fron": 2891,
      "raising": 2892,
      "policies": 2893,
      "hands": 2894,
      "speculation": 2895,
      "measures": 2896,
      "materials": 2897,
      "none": 2898,
      "rated": 2899,
      "reform": 2900,
      "sty": 2901,
      "alone": 2902,
      "offers": 2903,
      "afric": 2904,
      "internal": 2905,
      "renz": 2906,
      "council": 2907,
      "highly": 2908,
      "motors": 2909,
      "insist": 2910,
      "successful": 2911,
      "individuals": 2912,
      "purchases": 2913,
      "scow": 2914,
      "brands": 2915,
      "proceeds": 2916,
      "rapid": 2917,
      "climbed": 2918,
      "blue": 2919,
      "negative": 2920,
      "cross": 2921,
      "pence": 2922,
      "rum": 2923,
      "sun": 2924,
      "smo": 2925,
      "tro": 2926,
      "tap": 2927,
      "adding": 2928,
      "image": 2929,
      "domin": 2930,
      "actions": 2931,
      "feet": 2932,
      "investigation": 2933,
      "planning": 2934,
      "brown": 2935,
      "attack": 2936,
      "mitted": 2937,
      "daq": 2938,
      "nasdaq": 2939,
      "integr": 2940,
      "stanley": 2941,
      "hutton": 2942,
      "fa": 2943,
      "ipe": 2944,
      "mits": 2945,
      "tor": 2946,
      "usa": 2947,
      "invent": 2948,
      "story": 2949,
      "tour": 2950,
      "moun": 2951,
      "nove": 2952,
      "ault": 2953,
      "someone": 2954,
      "cray": 2955,
      "grad": 2956,
      "disaster": 2957,
      "laws": 2958,
      "flor": 2959,
      "affair": 2960,
      "miles": 2961,
      "customer": 2962,
      "students": 2963,
      "lawyer": 2964,
      "panel": 2965,
      "check": 2966,
      "practice": 2967,
      "recogn": 2968,
      "treatment": 2969,
      "appropriations": 2970,
      "carrier": 2971,
      "amounts": 2972,
      "municipal": 2973,
      "aur": 2974,
      "jer": 2975,
      "ses": 2976,
      "sil": 2977,
      "tes": 2978,
      "stem": 2979,
      "aries": 2980,
      "arma": 2981,
      "utical": 2982,
      "dead": 2983,
      "ceutical": 2984,
      "finally": 2985,
      "chance": 2986,
      "positions": 2987,
      "worked": 2988,
      "lawson": 2989,
      "lawmakers": 2990,
      "interested": 2991,
      "pharma": 2992,
      "publicly": 2993,
      "charles": 2994,
      "relations": 2995,
      "everyone": 2996,
      "drugs": 2997,
      "regulatory": 2998,
      "double": 2999,
      "restaur": 3000,
      "scen": 3001,
      "consultant": 3002,
      "louis": 3003,
      "pharmaceutical": 3004,
      "ray": 3005,
      "forms": 3006,
      "conv": 3007,
      "neither": 3008,
      "docu": 3009,
      "brad": 3010,
      "jose": 3011,
      "police": 3012,
      "bids": 3013,
      "advant": 3014,
      "bench": 3015,
      "soviets": 3016,
      "doub": 3017,
      "attributed": 3018,
      "standards": 3019,
      "franch": 3020,
      "negotiations": 3021,
      "republican": 3022,
      "minority": 3023,
      "tender": 3024,
      "commodity": 3025,
      "experts": 3026,
      "rejected": 3027,
      "settled": 3028,
      "cul": 3029,
      "dist": 3030,
      "pho": 3031,
      "slu": 3032,
      "replace": 3033,
      "reorganization": 3034,
      "ads": 3035,
      "urban": 3036,
      "promot": 3037,
      "ationship": 3038,
      "moment": 3039,
      "apers": 3040,
      "affil": 3041,
      "expectations": 3042,
      "attention": 3043,
      "wrong": 3044,
      "relationship": 3045,
      "accounting": 3046,
      "competitors": 3047,
      "swiss": 3048,
      "syl": 3049,
      "ulture": 3050,
      "otc": 3051,
      "eventually": 3052,
      "strength": 3053,
      "affili": 3054,
      "bers": 3055,
      "hatt": 3056,
      "rid": 3057,
      "sought": 3058,
      "repe": 3059,
      "sound": 3060,
      "manhatt": 3061,
      "grand": 3062,
      "mostly": 3063,
      "gene": 3064,
      "join": 3065,
      "drive": 3066,
      "factors": 3067,
      "northern": 3068,
      "society": 3069,
      "remaining": 3070,
      "considering": 3071,
      "petrole": 3072,
      "dividends": 3073,
      "heavily": 3074,
      "adjusted": 3075,
      "retirement": 3076,
      "mexico": 3077,
      "manhattan": 3078,
      "petroleum": 3079,
      "ament": 3080,
      "lic": 3081,
      "obl": 3082,
      "spl": 3083,
      "insu": 3084,
      "stations": 3085,
      "chap": 3086,
      "etary": 3087,
      "aggress": 3088,
      "traff": 3089,
      "output": 3090,
      "anyone": 3091,
      "ifts": 3092,
      "monetary": 3093,
      "ght": 3094,
      "spir": 3095,
      "profitable": 3096,
      "controvers": 3097,
      "techn": 3098,
      "opening": 3099,
      "easy": 3100,
      "giving": 3101,
      "magazines": 3102,
      "ownership": 3103,
      "typically": 3104,
      "waiting": 3105,
      "immediately": 3106,
      "trend": 3107,
      "november": 3108,
      "split": 3109,
      "chapter": 3110,
      "ely": 3111,
      "gul": 3112,
      "kr": 3113,
      "lend": 3114,
      "native": 3115,
      "pent": 3116,
      "itu": 3117,
      "agon": 3118,
      "exchanges": 3119,
      "describ": 3120,
      "events": 3121,
      "pursu": 3122,
      "risks": 3123,
      "film": 3124,
      "developing": 3125,
      "litigation": 3126,
      "chemicals": 3127,
      "improvement": 3128,
      "visit": 3129,
      "copper": 3130,
      "scientists": 3131,
      "items": 3132,
      "criminal": 3133,
      "opportunity": 3134,
      "victims": 3135,
      "gulf": 3136,
      "pentagon": 3137,
      "gives": 3138,
      "hud": 3139,
      "mission": 3140,
      "nb": 3141,
      "rout": 3142,
      "moscow": 3143,
      "neigh": 3144,
      "iff": 3145,
      "iving": 3146,
      "iel": 3147,
      "presents": 3148,
      "usx": 3149,
      "aircraft": 3150,
      "monthly": 3151,
      "cert": 3152,
      "bask": 3153,
      "phen": 3154,
      "regional": 3155,
      "bidding": 3156,
      "concerned": 3157,
      "everything": 3158,
      "motive": 3159,
      "structure": 3160,
      "england": 3161,
      "occur": 3162,
      "acquisitions": 3163,
      "fuj": 3164,
      "college": 3165,
      "studi": 3166,
      "minutes": 3167,
      "lloy": 3168,
      "mich": 3169,
      "sor": 3170,
      "swe": 3171,
      "scal": 3172,
      "tit": 3173,
      "isers": 3174,
      "icts": 3175,
      "secu": 3176,
      "formed": 3177,
      "ares": 3178,
      "lose": 3179,
      "convent": 3180,
      "igence": 3181,
      "excess": 3182,
      "noon": 3183,
      "respect": 3184,
      "homes": 3185,
      "decl": 3186,
      "gets": 3187,
      "owner": 3188,
      "speed": 3189,
      "clearly": 3190,
      "trouble": 3191,
      "deposit": 3192,
      "details": 3193,
      "aimed": 3194,
      "principal": 3195,
      "traditional": 3196,
      "election": 3197,
      "lloyd": 3198,
      "secured": 3199,
      "egg": 3200,
      "ium": 3201,
      "pas": 3202,
      "wis": 3203,
      "ency": 3204,
      "coast": 3205,
      "sam": 3206,
      "thatcher": 3207,
      "amend": 3208,
      "audi": 3209,
      "cker": 3210,
      "foot": 3211,
      "apple": 3212,
      "equal": 3213,
      "controlled": 3214,
      "match": 3215,
      "certainly": 3216,
      "runs": 3217,
      "mortgages": 3218,
      "sources": 3219,
      "experience": 3220,
      "predict": 3221,
      "responsib": 3222,
      "restrictions": 3223,
      "broadcasting": 3224,
      "original": 3225,
      "maturity": 3226,
      "front": 3227,
      "ibas": 3228,
      "oak": 3229,
      "paul": 3230,
      "sort": 3231,
      "wro": 3232,
      "wers": 3233,
      "refer": 3234,
      "edward": 3235,
      "true": 3236,
      "opin": 3237,
      "plast": 3238,
      "ultim": 3239,
      "parties": 3240,
      "crime": 3241,
      "grade": 3242,
      "fraud": 3243,
      "span": 3244,
      "paribas": 3245,
      "regular": 3246,
      "debate": 3247,
      "controls": 3248,
      "facility": 3249,
      "specul": 3250,
      "chinese": 3251,
      "couple": 3252,
      "penn": 3253,
      "ordinary": 3254,
      "troubled": 3255,
      "increasingly": 3256,
      "requirements": 3257,
      "believed": 3258,
      "combined": 3259,
      "primarily": 3260,
      "global": 3261,
      "thousands": 3262,
      "subordinated": 3263,
      "certific": 3264,
      "wrote": 3265,
      "ror": 3266,
      "ret": 3267,
      "refin": 3268,
      "deput": 3269,
      "trig": 3270,
      "incent": 3271,
      "corn": 3272,
      "mond": 3273,
      "bles": 3274,
      "mayor": 3275,
      "charact": 3276,
      "players": 3277,
      "burn": 3278,
      "involving": 3279,
      "sugar": 3280,
      "difference": 3281,
      "grew": 3282,
      "weakness": 3283,
      "ratings": 3284,
      "vehicles": 3285,
      "nuclear": 3286,
      "temporary": 3287,
      "consist": 3288,
      "prepared": 3289,
      "segment": 3290,
      "ohio": 3291,
      "franchise": 3292,
      "bby": 3293,
      "ech": 3294,
      "fit": 3295,
      "hig": 3296,
      "ked": 3297,
      "mus": 3298,
      "olin": 3299,
      "task": 3300,
      "intel": 3301,
      "stor": 3302,
      "alty": 3303,
      "tomor": 3304,
      "sey": 3305,
      "chips": 3306,
      "movie": 3307,
      "tried": 3308,
      "hest": 3309,
      "resist": 3310,
      "quite": 3311,
      "mary": 3312,
      "centers": 3313,
      "ansion": 3314,
      "producer": 3315,
      "cutting": 3316,
      "mae": 3317,
      "operate": 3318,
      "roughly": 3319,
      "expansion": 3320,
      "signal": 3321,
      "virt": 3322,
      "goldman": 3323,
      "syn": 3324,
      "choice": 3325,
      "publishing": 3326,
      "environment": 3327,
      "scand": 3328,
      "revised": 3329,
      "statist": 3330,
      "responsible": 3331,
      "prosecutors": 3332,
      "korea": 3333,
      "arizona": 3334,
      "technical": 3335,
      "highest": 3336,
      "tomorrow": 3337,
      "cities": 3338,
      "ewe": 3339,
      "nations": 3340,
      "vy": 3341,
      "ince": 3342,
      "ilty": 3343,
      "cos": 3344,
      "listed": 3345,
      "achie": 3346,
      "ishi": 3347,
      "served": 3348,
      "sells": 3349,
      "subishi": 3350,
      "guilty": 3351,
      "continent": 3352,
      "install": 3353,
      "expensive": 3354,
      "mitsubishi": 3355,
      "numbers": 3356,
      "powerful": 3357,
      "damaged": 3358,
      "declining": 3359,
      "automotive": 3360,
      "employee": 3361,
      "slowing": 3362,
      "consulting": 3363,
      "released": 3364,
      "plunged": 3365,
      "painewe": 3366,
      "launched": 3367,
      "nbc": 3368,
      "painewebber": 3369,
      "tin": 3370,
      "intell": 3371,
      "reme": 3372,
      "trip": 3373,
      "amid": 3374,
      "manville": 3375,
      "bling": 3376,
      "voted": 3377,
      "extreme": 3378,
      "region": 3379,
      "advance": 3380,
      "corporations": 3381,
      "competitive": 3382,
      "failure": 3383,
      "schools": 3384,
      "buildings": 3385,
      "sterling": 3386,
      "fairly": 3387,
      "assistant": 3388,
      "collapse": 3389,
      "intelligence": 3390,
      "10": 3391,
      "80s": 3392,
      "aco": 3393,
      "award": 3394,
      "cate": 3395,
      "dall": 3396,
      "eag": 3397,
      "gard": 3398,
      "hone": 3399,
      "mess": 3400,
      "squ": 3401,
      "vit": 3402,
      "represents": 3403,
      "arm": 3404,
      "coal": 3405,
      "agric": 3406,
      "shall": 3407,
      "aband": 3408,
      "boom": 3409,
      "losing": 3410,
      "poses": 3411,
      "putting": 3412,
      "insurers": 3413,
      "showing": 3414,
      "headed": 3415,
      "charged": 3416,
      "associated": 3417,
      "played": 3418,
      "slowdown": 3419,
      "heart": 3420,
      "purchased": 3421,
      "colum": 3422,
      "steps": 3423,
      "republicans": 3424,
      "surprising": 3425,
      "recovery": 3426,
      "navigation": 3427,
      "radio": 3428,
      "toronto": 3429,
      "dallas": 3430,
      "dden": 3431,
      "gian": 3432,
      "hill": 3433,
      "paren": 3434,
      "ries": 3435,
      "xon": 3436,
      "station": 3437,
      "tom": 3438,
      "isra": 3439,
      "round": 3440,
      "core": 3441,
      "ida": 3442,
      "demon": 3443,
      "lock": 3444,
      "sudden": 3445,
      "proced": 3446,
      "exxon": 3447,
      "apart": 3448,
      "peau": 3449,
      "prud": 3450,
      "bol": 3451,
      "firmed": 3452,
      "voters": 3453,
      "maybe": 3454,
      "values": 3455,
      "divers": 3456,
      "signs": 3457,
      "effects": 3458,
      "citing": 3459,
      "balance": 3460,
      "predicted": 3461,
      "trucks": 3462,
      "exclus": 3463,
      "campeau": 3464,
      "devices": 3465,
      "sachs": 3466,
      "uncertainty": 3467,
      "hundreds": 3468,
      "dozen": 3469,
      "documents": 3470,
      "advantage": 3471,
      "dle": 3472,
      "frequ": 3473,
      "gar": 3474,
      "krenz": 3475,
      "lending": 3476,
      "osa": 3477,
      "unlike": 3478,
      "atch": 3479,
      "beat": 3480,
      "utilities": 3481,
      "wealth": 3482,
      "bul": 3483,
      "boe": 3484,
      "whom": 3485,
      "acknow": 3486,
      "mind": 3487,
      "surv": 3488,
      "genet": 3489,
      "brook": 3490,
      "paris": 3491,
      "issions": 3492,
      "sears": 3493,
      "ventures": 3494,
      "elections": 3495,
      "morris": 3496,
      "transfer": 3497,
      "faced": 3498,
      "complex": 3499,
      "advertisers": 3500,
      "reflects": 3501,
      "release": 3502,
      "fears": 3503,
      "affected": 3504,
      "primary": 3505,
      "underwriters": 3506,
      "indian": 3507,
      "dispute": 3508,
      "affairs": 3509,
      "traffic": 3510,
      "scale": 3511,
      "trigger": 3512,
      "acknowled": 3513,
      "breed": 3514,
      "ff": 3515,
      "hib": 3516,
      "xury": 3517,
      "zer": 3518,
      "unusual": 3519,
      "alan": 3520,
      "ctors": 3521,
      "erson": 3522,
      "shift": 3523,
      "trillion": 3524,
      "essential": 3525,
      "fewer": 3526,
      "bound": 3527,
      "century": 3528,
      "luxury": 3529,
      "lincol": 3530,
      "merc": 3531,
      "brief": 3532,
      "afternoon": 3533,
      "surged": 3534,
      "words": 3535,
      "strugg": 3536,
      "enterpr": 3537,
      "proposals": 3538,
      "reasons": 3539,
      "deposits": 3540,
      "nik": 3541,
      "mixte": 3542,
      "elsewhere": 3543,
      "launch": 3544,
      "constitutional": 3545,
      "icians": 3546,
      "exercise": 3547,
      "relief": 3548,
      "accepted": 3549,
      "doubt": 3550,
      "lincoln": 3551,
      "crop": 3552,
      "cds": 3553,
      "fun": 3554,
      "ients": 3555,
      "lay": 3556,
      "mac": 3557,
      "pal": 3558,
      "iling": 3559,
      "liability": 3560,
      "berg": 3561,
      "address": 3562,
      "throughout": 3563,
      "accord": 3564,
      "communist": 3565,
      "color": 3566,
      "annually": 3567,
      "faces": 3568,
      "golden": 3569,
      "falling": 3570,
      "significantly": 3571,
      "explor": 3572,
      "australian": 3573,
      "mixed": 3574,
      "adviser": 3575,
      "strategic": 3576,
      "established": 3577,
      "atlant": 3578,
      "residents": 3579,
      "pretty": 3580,
      "jersey": 3581,
      "neighbor": 3582,
      "virtually": 3583,
      "continental": 3584,
      "han": 3585,
      "hor": 3586,
      "hen": 3587,
      "lam": 3588,
      "pipe": 3589,
      "wit": 3590,
      "theless": 3591,
      "era": 3592,
      "renew": 3593,
      "enced": 3594,
      "arg": 3595,
      "aragu": 3596,
      "concent": 3597,
      "opposed": 3598,
      "aste": 3599,
      "acted": 3600,
      "febr": 3601,
      "anti": 3602,
      "positive": 3603,
      "worry": 3604,
      "sides": 3605,
      "normal": 3606,
      "metals": 3607,
      "healthy": 3608,
      "starting": 3609,
      "client": 3610,
      "hearing": 3611,
      "initi": 3612,
      "practices": 3613,
      "baseball": 3614,
      "alternative": 3615,
      "books": 3616,
      "copy": 3617,
      "glas": 3618,
      "substantially": 3619,
      "distribution": 3620,
      "nicaragu": 3621,
      "accused": 3622,
      "hostile": 3623,
      "supplies": 3624,
      "guidelines": 3625,
      "deputy": 3626,
      "lambert": 3627,
      "february": 3628,
      "gun": 3629,
      "ibe": 3630,
      "sir": 3631,
      "theat": 3632,
      "arrange": 3633,
      "lee": 3634,
      "location": 3635,
      "conced": 3636,
      "shut": 3637,
      "exam": 3638,
      "perform": 3639,
      "fine": 3640,
      "finished": 3641,
      "contrast": 3642,
      "mainfr": 3643,
      "factory": 3644,
      "telecommunications": 3645,
      "ordered": 3646,
      "seemed": 3647,
      "involve": 3648,
      "boosted": 3649,
      "appeared": 3650,
      "critics": 3651,
      "modern": 3652,
      "thrifts": 3653,
      "confidence": 3654,
      "defendants": 3655,
      "seats": 3656,
      "leaving": 3657,
      "benchmark": 3658,
      "opinion": 3659,
      "certificates": 3660,
      "apo": 3661,
      "ee": 3662,
      "fash": 3663,
      "fuel": 3664,
      "gers": 3665,
      "gone": 3666,
      "lor": 3667,
      "ustr": 3668,
      "adop": 3669,
      "living": 3670,
      "monitor": 3671,
      "gross": 3672,
      "mine": 3673,
      "decisions": 3674,
      "ideo": 3675,
      "highway": 3676,
      "weekend": 3677,
      "bigger": 3678,
      "mainly": 3679,
      "guard": 3680,
      "taxpay": 3681,
      "medic": 3682,
      "puts": 3683,
      "managed": 3684,
      "remained": 3685,
      "judges": 3686,
      "follows": 3687,
      "names": 3688,
      "pricing": 3689,
      "micro": 3690,
      "burgh": 3691,
      "representatives": 3692,
      "panama": 3693,
      "attorneys": 3694,
      "connect": 3695,
      "liquidity": 3696,
      "barrels": 3697,
      "instruments": 3698,
      "florida": 3699,
      "amendment": 3700,
      "fashion": 3701,
      "70s": 3702,
      "cs": 3703,
      "jur": 3704,
      "lf": 3705,
      "pace": 3706,
      "ram": 3707,
      "va": 3708,
      "theast": 3709,
      "orp": 3710,
      "enforce": 3711,
      "iled": 3712,
      "icorp": 3713,
      "sea": 3714,
      "semic": 3715,
      "illips": 3716,
      "aret": 3717,
      "finding": 3718,
      "grain": 3719,
      "decide": 3720,
      "surge": 3721,
      "stephen": 3722,
      "phillips": 3723,
      "earns": 3724,
      "reflected": 3725,
      "authorities": 3726,
      "1980s": 3727,
      "1970s": 3728,
      "blacks": 3729,
      "middle": 3730,
      "scot": 3731,
      "producing": 3732,
      "stopped": 3733,
      "crude": 3734,
      "families": 3735,
      "challenge": 3736,
      "conventional": 3737,
      "burnham": 3738,
      "synd": 3739,
      "parents": 3740,
      "semicon": 3741,
      "band": 3742,
      "jef": 3743,
      "tight": 3744,
      "select": 3745,
      "sage": 3746,
      "utility": 3747,
      "lobby": 3748,
      "sus": 3749,
      "exact": 3750,
      "soph": 3751,
      "soared": 3752,
      "neko": 3753,
      "abroad": 3754,
      "liber": 3755,
      "withdraw": 3756,
      "quot": 3757,
      "akes": 3758,
      "felt": 3759,
      "operates": 3760,
      "calcul": 3761,
      "understand": 3762,
      "drink": 3763,
      "carolin": 3764,
      "talking": 3765,
      "spot": 3766,
      "ibility": 3767,
      "furt": 3768,
      "older": 3769,
      "technolog": 3770,
      "obvious": 3771,
      "appeals": 3772,
      "leadership": 3773,
      "circu": 3774,
      "frankfurt": 3775,
      "models": 3776,
      "influence": 3777,
      "ounce": 3778,
      "slipped": 3779,
      "candidates": 3780,
      "style": 3781,
      "rumors": 3782,
      "insured": 3783,
      "demonstr": 3784,
      "nekoosa": 3785,
      "aero": 3786,
      "bat": 3787,
      "eth": 3788,
      "tick": 3789,
      "rebound": 3790,
      "stress": 3791,
      "sees": 3792,
      "verse": 3793,
      "abc": 3794,
      "gested": 3795,
      "hot": 3796,
      "hood": 3797,
      "interstate": 3798,
      "grant": 3799,
      "intended": 3800,
      "type": 3801,
      "courts": 3802,
      "caw": 3803,
      "houston": 3804,
      "wells": 3805,
      "condition": 3806,
      "letters": 3807,
      "meetings": 3808,
      "stronger": 3809,
      "suggested": 3810,
      "keeping": 3811,
      "patients": 3812,
      "purchasing": 3813,
      "mccaw": 3814,
      "immediate": 3815,
      "suspended": 3816,
      "africa": 3817,
      "studio": 3818,
      "oakland": 3819,
      "scandal": 3820,
      "statistics": 3821,
      "column": 3822,
      "prudential": 3823,
      "aerospace": 3824,
      "fann": 3825,
      "ky": 3826,
      "mca": 3827,
      "pages": 3828,
      "rust": 3829,
      "vies": 3830,
      "wif": 3831,
      "wond": 3832,
      "wise": 3833,
      "wang": 3834,
      "anim": 3835,
      "ons": 3836,
      "atic": 3837,
      "chur": 3838,
      "chry": 3839,
      "save": 3840,
      "compromise": 3841,
      "loc": 3842,
      "confirmed": 3843,
      "moder": 3844,
      "movies": 3845,
      "ductor": 3846,
      "goal": 3847,
      "mont": 3848,
      "prelimin": 3849,
      "voice": 3850,
      "italy": 3851,
      "direction": 3852,
      "assess": 3853,
      "equival": 3854,
      "collect": 3855,
      "sler": 3856,
      "studies": 3857,
      "consultants": 3858,
      "guarantee": 3859,
      "assistance": 3860,
      "shopping": 3861,
      "royal": 3862,
      "discussions": 3863,
      "determined": 3864,
      "piece": 3865,
      "twice": 3866,
      "joseph": 3867,
      "extremely": 3868,
      "abandon": 3869,
      "boeing": 3870,
      "fannie": 3871,
      "wife": 3872,
      "church": 3873,
      "chrysler": 3874,
      "preliminary": 3875,
      "crow": 3876,
      "file": 3877,
      "wake": 3878,
      "wish": 3879,
      "wild": 3880,
      "inner": 3881,
      "rey": 3882,
      "itrust": 3883,
      "coverage": 3884,
      "safe": 3885,
      "lywood": 3886,
      "ague": 3887,
      "meant": 3888,
      "mother": 3889,
      "antitrust": 3890,
      "user": 3891,
      "disclose": 3892,
      "buyer": 3893,
      "senators": 3894,
      "commitments": 3895,
      "flight": 3896,
      "structural": 3897,
      "democracy": 3898,
      "river": 3899,
      "citiz": 3900,
      "citicorp": 3901,
      "negotiating": 3902,
      "hollywood": 3903,
      "ratio": 3904,
      "satis": 3905,
      "training": 3906,
      "guarantees": 3907,
      "comparable": 3908,
      "silver": 3909,
      "declared": 3910,
      "argue": 3911,
      "awn": 3912,
      "bed": 3913,
      "eli": 3914,
      "iet": 3915,
      "iety": 3916,
      "wear": 3917,
      "alleg": 3918,
      "chev": 3919,
      "adium": 3920,
      "deep": 3921,
      "sures": 3922,
      "iron": 3923,
      "promo": 3924,
      "shown": 3925,
      "expo": 3926,
      "quiet": 3927,
      "upon": 3928,
      "ancy": 3929,
      "mining": 3930,
      "spin": 3931,
      "efficient": 3932,
      "joined": 3933,
      "steven": 3934,
      "lands": 3935,
      "movement": 3936,
      "asking": 3937,
      "records": 3938,
      "swings": 3939,
      "denied": 3940,
      "written": 3941,
      "jointly": 3942,
      "happen": 3943,
      "volatile": 3944,
      "succeeds": 3945,
      "suggests": 3946,
      "professor": 3947,
      "advisers": 3948,
      "navy": 3949,
      "fortun": 3950,
      "warrants": 3951,
      "usair": 3952,
      "mountain": 3953,
      "basket": 3954,
      "atlantic": 3955,
      "cd": 3956,
      "freed": 3957,
      "ij": 3958,
      "mgm": 3959,
      "erate": 3960,
      "rect": 3961,
      "tool": 3962,
      "isis": 3963,
      "rober": 3964,
      "beij": 3965,
      "comfort": 3966,
      "urday": 3967,
      "compens": 3968,
      "liament": 3969,
      "prison": 3970,
      "door": 3971,
      "iven": 3972,
      "kel": 3973,
      "merk": 3974,
      "crisis": 3975,
      "discovered": 3976,
      "counsel": 3977,
      "forest": 3978,
      "weekly": 3979,
      "drives": 3980,
      "word": 3981,
      "parliament": 3982,
      "agreements": 3983,
      "returned": 3984,
      "refused": 3985,
      "damages": 3986,
      "club": 3987,
      "regulations": 3988,
      "object": 3989,
      "telerate": 3990,
      "patent": 3991,
      "providing": 3992,
      "rooms": 3993,
      "saturday": 3994,
      "vehicle": 3995,
      "anticipated": 3996,
      "resolution": 3997,
      "recommend": 3998,
      "friendly": 3999
    },
    "merges": [
      [
        "t",
        "h"
      ],
      [
        "i",
        "n"
      ],
      [
        "th",
        "e"
      ],
      [
        "a",
        "n"
      ],
      [
        "u",
        "n"
      ],
      [
        "e",
        "r"
      ],
      [
        "o",
        "n"
      ],
      [
        "r",
        "e"
      ],
      [
        "un",
        "k"
      ],
      [
        "a",
        "t"
      ],
      [
        "s",
        "t"
      ],
      [
        "o",
        "r"
      ],
      [
        "e",
        "n"
      ],
      [
        "a",
        "l"
      ],
      [
        "e",
        "d"
      ],
      [
        "a",
        "r"
      ],
      [
        "o",
        "f"
      ],
      [
        "t",
        "o"
      ],
      [
        "i",
        "t"
      ],
      [
        "e",
        "s"
      ],
      [
        "in",
        "g"
      ],
      [
        "i",
        "on"
      ],
      [
        "a",
        "s"
      ],
      [
        "i",
        "s"
      ],
      [
        "r",
        "o"
      ],
      [
        "an",
        "d"
      ],
      [
        "i",
        "l"
      ],
      [
        "i",
        "c"
      ],
      [
        "c",
        "o"
      ],
      [
        "s",
        "e"
      ],
      [
        "en",
        "t"
      ],
      [
        "i",
        "d"
      ],
      [
        "o",
        "u"
      ],
      [
        "c",
        "h"
      ],
      [
        "l",
        "e"
      ],
      [
        "v",
        "e"
      ],
      [
        "il",
        "l"
      ],
      [
        "f",
        "or"
      ],
      [
        "a",
        "d"
      ],
      [
        "b",
        "e"
      ],
      [
        "c",
        "t"
      ],
      [
        "s",
        "a"
      ],
      [
        "co",
        "m"
      ],
      [
        "l",
        "y"
      ],
      [
        "u",
        "t"
      ],
      [
        "a",
        "re"
      ],
      [
        "u",
        "r"
      ],
      [
        "th",
        "at"
      ],
      [
        "d",
        "e"
      ],
      [
        "l",
        "o"
      ],
      [
        "w",
        "h"
      ],
      [
        "e",
        "t"
      ],
      [
        "c",
        "on"
      ],
      [
        "er",
        "s"
      ],
      [
        "l",
        "d"
      ],
      [
        "a",
        "g"
      ],
      [
        "s",
        "u"
      ],
      [
        "e",
        "ar"
      ],
      [
        "i",
        "r"
      ],
      [
        "p",
        "ro"
      ],
      [
        "a",
        "y"
      ],
      [
        "s",
        "h"
      ],
      [
        "m",
        "e"
      ],
      [
        "c",
        "e"
      ],
      [
        "i",
        "g"
      ],
      [
        "e",
        "x"
      ],
      [
        "v",
        "er"
      ],
      [
        "s",
        "o"
      ],
      [
        "at",
        "ion"
      ],
      [
        "ill",
        "ion"
      ],
      [
        "t",
        "er"
      ],
      [
        "m",
        "o"
      ],
      [
        "m",
        "ent"
      ],
      [
        "t",
        "r"
      ],
      [
        "p",
        "o"
      ],
      [
        "n",
        "o"
      ],
      [
        "h",
        "e"
      ],
      [
        "sa",
        "id"
      ],
      [
        "a",
        "m"
      ],
      [
        "com",
        "p"
      ],
      [
        "re",
        "s"
      ],
      [
        "at",
        "e"
      ],
      [
        "n",
        "e"
      ],
      [
        "a",
        "b"
      ],
      [
        "w",
        "e"
      ],
      [
        "a",
        "p"
      ],
      [
        "l",
        "i"
      ],
      [
        "i",
        "th"
      ],
      [
        "a",
        "c"
      ],
      [
        "w",
        "ith"
      ],
      [
        "b",
        "y"
      ],
      [
        "m",
        "an"
      ],
      [
        "q",
        "u"
      ],
      [
        "f",
        "ro"
      ],
      [
        "fro",
        "m"
      ],
      [
        "it",
        "s"
      ],
      [
        "m",
        "illion"
      ],
      [
        "p",
        "e"
      ],
      [
        "i",
        "m"
      ],
      [
        "ou",
        "t"
      ],
      [
        "p",
        "r"
      ],
      [
        "m",
        "r"
      ],
      [
        "g",
        "e"
      ],
      [
        "l",
        "l"
      ],
      [
        "a",
        "k"
      ],
      [
        "a",
        "in"
      ],
      [
        "w",
        "as"
      ],
      [
        "y",
        "ear"
      ],
      [
        "b",
        "u"
      ],
      [
        "t",
        "e"
      ],
      [
        "i",
        "es"
      ],
      [
        "d",
        "o"
      ],
      [
        "st",
        "r"
      ],
      [
        "d",
        "u"
      ],
      [
        "b",
        "ut"
      ],
      [
        "m",
        "ar"
      ],
      [
        "t",
        "s"
      ],
      [
        "i",
        "al"
      ],
      [
        "the",
        "r"
      ],
      [
        "h",
        "a"
      ],
      [
        "an",
        "y"
      ],
      [
        "al",
        "l"
      ],
      [
        "o",
        "p"
      ],
      [
        "u",
        "p"
      ],
      [
        "in",
        "c"
      ],
      [
        "p",
        "l"
      ],
      [
        "of",
        "f"
      ],
      [
        "h",
        "as"
      ],
      [
        "es",
        "s"
      ],
      [
        "w",
        "ill"
      ],
      [
        "ne",
        "w"
      ],
      [
        "on",
        "e"
      ],
      [
        "p",
        "or"
      ],
      [
        "a",
        "st"
      ],
      [
        "a",
        "u"
      ],
      [
        "i",
        "ve"
      ],
      [
        "i",
        "f"
      ],
      [
        "un",
        "d"
      ],
      [
        "c",
        "k"
      ],
      [
        "h",
        "o"
      ],
      [
        "g",
        "o"
      ],
      [
        "ig",
        "h"
      ],
      [
        "mar",
        "k"
      ],
      [
        "ha",
        "ve"
      ],
      [
        "a",
        "ct"
      ],
      [
        "st",
        "o"
      ],
      [
        "i",
        "v"
      ],
      [
        "e",
        "st"
      ],
      [
        "sh",
        "are"
      ],
      [
        "en",
        "d"
      ],
      [
        "w",
        "er"
      ],
      [
        "c",
        "or"
      ],
      [
        "sa",
        "y"
      ],
      [
        "ar",
        "t"
      ],
      [
        "it",
        "y"
      ],
      [
        "mark",
        "et"
      ],
      [
        "d",
        "ay"
      ],
      [
        "ou",
        "ld"
      ],
      [
        "f",
        "o"
      ],
      [
        "ic",
        "h"
      ],
      [
        "f",
        "e"
      ],
      [
        "comp",
        "any"
      ],
      [
        "i",
        "e"
      ],
      [
        "b",
        "o"
      ],
      [
        "m",
        "on"
      ],
      [
        "u",
        "l"
      ],
      [
        "ag",
        "e"
      ],
      [
        "the",
        "y"
      ],
      [
        "w",
        "n"
      ],
      [
        "ic",
        "e"
      ],
      [
        "an",
        "t"
      ],
      [
        "sto",
        "ck"
      ],
      [
        "th",
        "is"
      ],
      [
        "e",
        "m"
      ],
      [
        "g",
        "h"
      ],
      [
        "tr",
        "ad"
      ],
      [
        "wh",
        "ich"
      ],
      [
        "p",
        "res"
      ],
      [
        "por",
        "t"
      ],
      [
        "w",
        "ould"
      ],
      [
        "or",
        "k"
      ],
      [
        "c",
        "ent"
      ],
      [
        "ar",
        "d"
      ],
      [
        "l",
        "u"
      ],
      [
        "o",
        "ther"
      ],
      [
        "mo",
        "re"
      ],
      [
        "p",
        "er"
      ],
      [
        "ab",
        "out"
      ],
      [
        "a",
        "f"
      ],
      [
        "u",
        "s"
      ],
      [
        "ak",
        "e"
      ],
      [
        "or",
        "s"
      ],
      [
        "b",
        "an"
      ],
      [
        "ve",
        "st"
      ],
      [
        "i",
        "st"
      ],
      [
        "b",
        "er"
      ],
      [
        "f",
        "ir"
      ],
      [
        "say",
        "s"
      ],
      [
        "in",
        "vest"
      ],
      [
        "wh",
        "o"
      ],
      [
        "s",
        "al"
      ],
      [
        "w",
        "o"
      ],
      [
        "re",
        "d"
      ],
      [
        "l",
        "in"
      ],
      [
        "no",
        "t"
      ],
      [
        "wer",
        "e"
      ],
      [
        "s",
        "in"
      ],
      [
        "i",
        "p"
      ],
      [
        "on",
        "g"
      ],
      [
        "f",
        "in"
      ],
      [
        "so",
        "me"
      ],
      [
        "p",
        "art"
      ],
      [
        "g",
        "ro"
      ],
      [
        "b",
        "illion"
      ],
      [
        "k",
        "e"
      ],
      [
        "m",
        "er"
      ],
      [
        "in",
        "ter"
      ],
      [
        "ou",
        "r"
      ],
      [
        "an",
        "c"
      ],
      [
        "h",
        "is"
      ],
      [
        "ac",
        "k"
      ],
      [
        "c",
        "ur"
      ],
      [
        "h",
        "ad"
      ],
      [
        "the",
        "ir"
      ],
      [
        "ch",
        "an"
      ],
      [
        "m",
        "in"
      ],
      [
        "ban",
        "k"
      ],
      [
        "o",
        "ver"
      ],
      [
        "ion",
        "s"
      ],
      [
        "l",
        "a"
      ],
      [
        "an",
        "s"
      ],
      [
        "u",
        "st"
      ],
      [
        "th",
        "an"
      ],
      [
        "ing",
        "s"
      ],
      [
        "ation",
        "s"
      ],
      [
        "c",
        "r"
      ],
      [
        "o",
        "d"
      ],
      [
        "p",
        "re"
      ],
      [
        "on",
        "d"
      ],
      [
        "lo",
        "s"
      ],
      [
        "t",
        "i"
      ],
      [
        "po",
        "s"
      ],
      [
        "at",
        "ed"
      ],
      [
        "re",
        "as"
      ],
      [
        "be",
        "en"
      ],
      [
        "a",
        "ir"
      ],
      [
        "v",
        "en"
      ],
      [
        "igh",
        "t"
      ],
      [
        "a",
        "ch"
      ],
      [
        "al",
        "so"
      ],
      [
        "er",
        "al"
      ],
      [
        "id",
        "ent"
      ],
      [
        "b",
        "r"
      ],
      [
        "ig",
        "n"
      ],
      [
        "b",
        "l"
      ],
      [
        "d",
        "i"
      ],
      [
        "con",
        "t"
      ],
      [
        "g",
        "r"
      ],
      [
        "f",
        "r"
      ],
      [
        "pro",
        "du"
      ],
      [
        "u",
        "m"
      ],
      [
        "re",
        "n"
      ],
      [
        "re",
        "e"
      ],
      [
        "cor",
        "p"
      ],
      [
        "an",
        "ce"
      ],
      [
        "c",
        "ut"
      ],
      [
        "o",
        "m"
      ],
      [
        "y",
        "st"
      ],
      [
        "pe",
        "ct"
      ],
      [
        "lo",
        "w"
      ],
      [
        "d",
        "is"
      ],
      [
        "c",
        "au"
      ],
      [
        "u",
        "e"
      ],
      [
        "v",
        "o"
      ],
      [
        "de",
        "c"
      ],
      [
        "co",
        "un"
      ],
      [
        "mon",
        "th"
      ],
      [
        "i",
        "a"
      ],
      [
        "ct",
        "ion"
      ],
      [
        "d",
        "ing"
      ],
      [
        "it",
        "ion"
      ],
      [
        "e",
        "k"
      ],
      [
        "t",
        "a"
      ],
      [
        "ic",
        "al"
      ],
      [
        "u",
        "al"
      ],
      [
        "s",
        "p"
      ],
      [
        "at",
        "es"
      ],
      [
        "ar",
        "y"
      ],
      [
        "s",
        "er"
      ],
      [
        "ic",
        "es"
      ],
      [
        "id",
        "e"
      ],
      [
        "b",
        "le"
      ],
      [
        "com",
        "m"
      ],
      [
        "it",
        "ies"
      ],
      [
        "bu",
        "sin"
      ],
      [
        "busin",
        "ess"
      ],
      [
        "ou",
        "s"
      ],
      [
        "c",
        "an"
      ],
      [
        "in",
        "t"
      ],
      [
        "ar",
        "ter"
      ],
      [
        "ab",
        "le"
      ],
      [
        "n",
        "ation"
      ],
      [
        "pres",
        "ident"
      ],
      [
        "wh",
        "en"
      ],
      [
        "t",
        "wo"
      ],
      [
        "l",
        "ast"
      ],
      [
        "af",
        "ter"
      ],
      [
        "w",
        "ork"
      ],
      [
        "il",
        "e"
      ],
      [
        "mo",
        "st"
      ],
      [
        "ou",
        "gh"
      ],
      [
        "qu",
        "arter"
      ],
      [
        "fo",
        "re"
      ],
      [
        "no",
        "w"
      ],
      [
        "share",
        "s"
      ],
      [
        "cau",
        "se"
      ],
      [
        "m",
        "a"
      ],
      [
        "year",
        "s"
      ],
      [
        "e",
        "l"
      ],
      [
        "bu",
        "y"
      ],
      [
        "m",
        "s"
      ],
      [
        "u",
        "re"
      ],
      [
        "fir",
        "st"
      ],
      [
        "off",
        "ic"
      ],
      [
        "h",
        "igh"
      ],
      [
        "trad",
        "ing"
      ],
      [
        "is",
        "h"
      ],
      [
        "s",
        "ur"
      ],
      [
        "sal",
        "es"
      ],
      [
        "ho",
        "ld"
      ],
      [
        "op",
        "er"
      ],
      [
        "c",
        "er"
      ],
      [
        "be",
        "cause"
      ],
      [
        "c",
        "al"
      ],
      [
        "ex",
        "pect"
      ],
      [
        "co",
        "u"
      ],
      [
        "i",
        "z"
      ],
      [
        "g",
        "en"
      ],
      [
        "p",
        "u"
      ],
      [
        "e",
        "f"
      ],
      [
        "f",
        "ed"
      ],
      [
        "b",
        "ond"
      ],
      [
        "cou",
        "ld"
      ],
      [
        "j",
        "o"
      ],
      [
        "g",
        "et"
      ],
      [
        "m",
        "ay"
      ],
      [
        "the",
        "re"
      ],
      [
        "t",
        "ed"
      ],
      [
        "in",
        "du"
      ],
      [
        "we",
        "ek"
      ],
      [
        "com",
        "e"
      ],
      [
        "und",
        "er"
      ],
      [
        "it",
        "e"
      ],
      [
        "is",
        "su"
      ],
      [
        "pro",
        "v"
      ],
      [
        "indu",
        "str"
      ],
      [
        "gro",
        "up"
      ],
      [
        "man",
        "y"
      ],
      [
        "ro",
        "u"
      ],
      [
        "ment",
        "s"
      ],
      [
        "chan",
        "ge"
      ],
      [
        "b",
        "as"
      ],
      [
        "f",
        "und"
      ],
      [
        "v",
        "i"
      ],
      [
        "po",
        "l"
      ],
      [
        "w",
        "ay"
      ],
      [
        "nation",
        "al"
      ],
      [
        "o",
        "wn"
      ],
      [
        "ad",
        "d"
      ],
      [
        "er",
        "ic"
      ],
      [
        "on",
        "ly"
      ],
      [
        "d",
        "r"
      ],
      [
        "la",
        "w"
      ],
      [
        "inc",
        "reas"
      ],
      [
        "su",
        "ch"
      ],
      [
        "off",
        "er"
      ],
      [
        "ver",
        "n"
      ],
      [
        "go",
        "vern"
      ],
      [
        "ti",
        "me"
      ],
      [
        "s",
        "en"
      ],
      [
        "pl",
        "an"
      ],
      [
        "y",
        "ork"
      ],
      [
        "m",
        "ak"
      ],
      [
        "a",
        "v"
      ],
      [
        "ver",
        "y"
      ],
      [
        "w",
        "or"
      ],
      [
        "j",
        "ap"
      ],
      [
        "jap",
        "an"
      ],
      [
        "do",
        "wn"
      ],
      [
        "c",
        "as"
      ],
      [
        "in",
        "e"
      ],
      [
        "o",
        "k"
      ],
      [
        "ex",
        "t"
      ],
      [
        "am",
        "eric"
      ],
      [
        "pr",
        "of"
      ],
      [
        "inter",
        "est"
      ],
      [
        "fin",
        "anc"
      ],
      [
        "c",
        "i"
      ],
      [
        "in",
        "to"
      ],
      [
        "li",
        "ke"
      ],
      [
        "st",
        "e"
      ],
      [
        "c",
        "ap"
      ],
      [
        "u",
        "res"
      ],
      [
        "e",
        "con"
      ],
      [
        "econ",
        "om"
      ],
      [
        "t",
        "ur"
      ],
      [
        "inc",
        "lu"
      ],
      [
        "c",
        "ar"
      ],
      [
        "re",
        "port"
      ],
      [
        "j",
        "ust"
      ],
      [
        "it",
        "al"
      ],
      [
        "or",
        "t"
      ],
      [
        "l",
        "t"
      ],
      [
        "se",
        "t"
      ],
      [
        "p",
        "t"
      ],
      [
        "st",
        "ate"
      ],
      [
        "ser",
        "v"
      ],
      [
        "se",
        "ll"
      ],
      [
        "pu",
        "bl"
      ],
      [
        "en",
        "ce"
      ],
      [
        "f",
        "er"
      ],
      [
        "s",
        "i"
      ],
      [
        "ar",
        "ge"
      ],
      [
        "b",
        "ro"
      ],
      [
        "wh",
        "ile"
      ],
      [
        "p",
        "ay"
      ],
      [
        "su",
        "b"
      ],
      [
        "b",
        "ig"
      ],
      [
        "e",
        "cut"
      ],
      [
        "n",
        "et"
      ],
      [
        "ex",
        "ecut"
      ],
      [
        "govern",
        "ment"
      ],
      [
        "comp",
        "an"
      ],
      [
        "p",
        "ed"
      ],
      [
        "fed",
        "eral"
      ],
      [
        "an",
        "al"
      ],
      [
        "c",
        "ed"
      ],
      [
        "h",
        "er"
      ],
      [
        "se",
        "cur"
      ],
      [
        "d",
        "es"
      ],
      [
        "t",
        "ain"
      ],
      [
        "c",
        "y"
      ],
      [
        "in",
        "de"
      ],
      [
        "con",
        "tr"
      ],
      [
        "t",
        "y"
      ],
      [
        "c",
        "ial"
      ],
      [
        "c",
        "ess"
      ],
      [
        "compan",
        "ies"
      ],
      [
        "p",
        "h"
      ],
      [
        "at",
        "ing"
      ],
      [
        "rou",
        "gh"
      ],
      [
        "is",
        "e"
      ],
      [
        "le",
        "ct"
      ],
      [
        "ear",
        "n"
      ],
      [
        "gr",
        "am"
      ],
      [
        "u",
        "d"
      ],
      [
        "m",
        "ain"
      ],
      [
        "ad",
        "e"
      ],
      [
        "pro",
        "gram"
      ],
      [
        "g",
        "u"
      ],
      [
        "anal",
        "yst"
      ],
      [
        "s",
        "pe"
      ],
      [
        "b",
        "ack"
      ],
      [
        "ta",
        "x"
      ],
      [
        "ur",
        "ing"
      ],
      [
        "offic",
        "ial"
      ],
      [
        "the",
        "m"
      ],
      [
        "r",
        "a"
      ],
      [
        "g",
        "er"
      ],
      [
        "cent",
        "s"
      ],
      [
        "ex",
        "change"
      ],
      [
        "p",
        "ar"
      ],
      [
        "s",
        "on"
      ],
      [
        "pe",
        "op"
      ],
      [
        "in",
        "d"
      ],
      [
        "co",
        "ur"
      ],
      [
        "t",
        "al"
      ],
      [
        "li",
        "er"
      ],
      [
        "peop",
        "le"
      ],
      [
        "tur",
        "n"
      ],
      [
        "e",
        "ven"
      ],
      [
        "m",
        "ed"
      ],
      [
        "s",
        "id"
      ],
      [
        "wh",
        "at"
      ],
      [
        "y",
        "ou"
      ],
      [
        "c",
        "all"
      ],
      [
        "ie",
        "ld"
      ],
      [
        "di",
        "re"
      ],
      [
        "lin",
        "e"
      ],
      [
        "ear",
        "lier"
      ],
      [
        "ag",
        "o"
      ],
      [
        "pr",
        "ices"
      ],
      [
        "co",
        "st"
      ],
      [
        "produ",
        "ct"
      ],
      [
        "c",
        "a"
      ],
      [
        "as",
        "s"
      ],
      [
        "be",
        "t"
      ],
      [
        "pr",
        "ice"
      ],
      [
        "or",
        "d"
      ],
      [
        "cur",
        "ren"
      ],
      [
        "a",
        "ce"
      ],
      [
        "re",
        "cent"
      ],
      [
        "t",
        "ing"
      ],
      [
        "j",
        "or"
      ],
      [
        "ma",
        "jor"
      ],
      [
        "at",
        "t"
      ],
      [
        "al",
        "ly"
      ],
      [
        "is",
        "s"
      ],
      [
        "invest",
        "ors"
      ],
      [
        "m",
        "u"
      ],
      [
        "str",
        "u"
      ],
      [
        "e",
        "v"
      ],
      [
        "cont",
        "in"
      ],
      [
        "g",
        "ain"
      ],
      [
        "h",
        "ou"
      ],
      [
        "un",
        "it"
      ],
      [
        "ir",
        "d"
      ],
      [
        "ro",
        "se"
      ],
      [
        "est",
        "er"
      ],
      [
        "l",
        "at"
      ],
      [
        "res",
        "s"
      ],
      [
        "t",
        "ake"
      ],
      [
        "f",
        "act"
      ],
      [
        "dire",
        "ct"
      ],
      [
        "th",
        "ird"
      ],
      [
        "en",
        "s"
      ],
      [
        "a",
        "il"
      ],
      [
        "g",
        "ed"
      ],
      [
        "re",
        "g"
      ],
      [
        "th",
        "ree"
      ],
      [
        "mu",
        "ch"
      ],
      [
        "th",
        "ough"
      ],
      [
        "y",
        "ester"
      ],
      [
        "yester",
        "day"
      ],
      [
        "ag",
        "ain"
      ],
      [
        "ap",
        "p"
      ],
      [
        "secur",
        "ities"
      ],
      [
        "month",
        "s"
      ],
      [
        "c",
        "los"
      ],
      [
        "p",
        "ut"
      ],
      [
        "j",
        "e"
      ],
      [
        "is",
        "ion"
      ],
      [
        "hou",
        "se"
      ],
      [
        "bond",
        "s"
      ],
      [
        "publ",
        "ic"
      ],
      [
        "l",
        "arge"
      ],
      [
        "los",
        "s"
      ],
      [
        "comp",
        "ut"
      ],
      [
        "te",
        "m"
      ],
      [
        "st",
        "and"
      ],
      [
        "r",
        "ate"
      ],
      [
        "ie",
        "f"
      ],
      [
        "n",
        "ext"
      ],
      [
        "financ",
        "ial"
      ],
      [
        "l",
        "ong"
      ],
      [
        "re",
        "su"
      ],
      [
        "o",
        "se"
      ],
      [
        "su",
        "p"
      ],
      [
        "i",
        "re"
      ],
      [
        "cap",
        "ital"
      ],
      [
        "th",
        "rough"
      ],
      [
        "ic",
        "t"
      ],
      [
        "c",
        "re"
      ],
      [
        "if",
        "ic"
      ],
      [
        "g",
        "es"
      ],
      [
        "le",
        "ad"
      ],
      [
        "t",
        "on"
      ],
      [
        "v",
        "al"
      ],
      [
        "sh",
        "o"
      ],
      [
        "ch",
        "air"
      ],
      [
        "de",
        "b"
      ],
      [
        "prof",
        "it"
      ],
      [
        "invest",
        "ment"
      ],
      [
        "gro",
        "w"
      ],
      [
        "earn",
        "ings"
      ],
      [
        "m",
        "ake"
      ],
      [
        "sh",
        "e"
      ],
      [
        "bo",
        "ard"
      ],
      [
        "un",
        "t"
      ],
      [
        "l",
        "ess"
      ],
      [
        "il",
        "ity"
      ],
      [
        "we",
        "ll"
      ],
      [
        "w",
        "ar"
      ],
      [
        "americ",
        "an"
      ],
      [
        "chair",
        "man"
      ],
      [
        "for",
        "m"
      ],
      [
        "s",
        "m"
      ],
      [
        "he",
        "l"
      ],
      [
        "ac",
        "qu"
      ],
      [
        "we",
        "st"
      ],
      [
        "d",
        "id"
      ],
      [
        "n",
        "or"
      ],
      [
        "l",
        "ate"
      ],
      [
        "s",
        "yst"
      ],
      [
        "syst",
        "em"
      ],
      [
        "lo",
        "y"
      ],
      [
        "p",
        "ur"
      ],
      [
        "de",
        "f"
      ],
      [
        "st",
        "ill"
      ],
      [
        "ch",
        "ief"
      ],
      [
        "tr",
        "y"
      ],
      [
        "in",
        "k"
      ],
      [
        "the",
        "se"
      ],
      [
        "industr",
        "y"
      ],
      [
        "one",
        "y"
      ],
      [
        "gen",
        "eral"
      ],
      [
        "g",
        "ress"
      ],
      [
        "es",
        "e"
      ],
      [
        "ear",
        "ly"
      ],
      [
        "stock",
        "s"
      ],
      [
        "re",
        "ad"
      ],
      [
        "execut",
        "ive"
      ],
      [
        "th",
        "ose"
      ],
      [
        "le",
        "g"
      ],
      [
        "m",
        "oney"
      ],
      [
        "inde",
        "x"
      ],
      [
        "c",
        "u"
      ],
      [
        "g",
        "y"
      ],
      [
        "ve",
        "lo"
      ],
      [
        "de",
        "velo"
      ],
      [
        "curren",
        "t"
      ],
      [
        "e",
        "qu"
      ],
      [
        "y",
        "ield"
      ],
      [
        "sin",
        "ce"
      ],
      [
        "or",
        "y"
      ],
      [
        "ur",
        "y"
      ],
      [
        "de",
        "al"
      ],
      [
        "m",
        "b"
      ],
      [
        "ent",
        "s"
      ],
      [
        "je",
        "ct"
      ],
      [
        "be",
        "fore"
      ],
      [
        "b",
        "ill"
      ],
      [
        "g",
        "an"
      ],
      [
        "in",
        "st"
      ],
      [
        "bu",
        "il"
      ],
      [
        "expect",
        "ed"
      ],
      [
        "are",
        "d"
      ],
      [
        "m",
        "ade"
      ],
      [
        "g",
        "in"
      ],
      [
        "official",
        "s"
      ],
      [
        "em",
        "p"
      ],
      [
        "re",
        "at"
      ],
      [
        "f",
        "ut"
      ],
      [
        "r",
        "is"
      ],
      [
        "th",
        "ing"
      ],
      [
        "con",
        "cer"
      ],
      [
        "d",
        "iv"
      ],
      [
        "t",
        "le"
      ],
      [
        "ex",
        "p"
      ],
      [
        "go",
        "od"
      ],
      [
        "end",
        "ed"
      ],
      [
        "b",
        "id"
      ],
      [
        "contr",
        "act"
      ],
      [
        "m",
        "it"
      ],
      [
        "ll",
        "ar"
      ],
      [
        "iv",
        "es"
      ],
      [
        "concer",
        "n"
      ],
      [
        "ro",
        "p"
      ],
      [
        "er",
        "e"
      ],
      [
        "o",
        "l"
      ],
      [
        "s",
        "po"
      ],
      [
        "f",
        "ar"
      ],
      [
        "fe",
        "ct"
      ],
      [
        "s",
        "ch"
      ],
      [
        "re",
        "al"
      ],
      [
        "ve",
        "l"
      ],
      [
        "c",
        "le"
      ],
      [
        "analyst",
        "s"
      ],
      [
        "con",
        "d"
      ],
      [
        "ver",
        "age"
      ],
      [
        "f",
        "il"
      ],
      [
        "c",
        "lo"
      ],
      [
        "am",
        "p"
      ],
      [
        "clos",
        "ed"
      ],
      [
        "se",
        "ar"
      ],
      [
        "r",
        "ic"
      ],
      [
        "v",
        "ie"
      ],
      [
        "cont",
        "ro"
      ],
      [
        "se",
        "l"
      ],
      [
        "pro",
        "ble"
      ],
      [
        "in",
        "sur"
      ],
      [
        "do",
        "llar"
      ],
      [
        "c",
        "red"
      ],
      [
        "n",
        "ing"
      ],
      [
        "l",
        "es"
      ],
      [
        "day",
        "s"
      ],
      [
        "i",
        "an"
      ],
      [
        "r",
        "ates"
      ],
      [
        "it",
        "ut"
      ],
      [
        "fir",
        "m"
      ],
      [
        "n",
        "er"
      ],
      [
        "po",
        "int"
      ],
      [
        "k",
        "es"
      ],
      [
        "as",
        "e"
      ],
      [
        "man",
        "ag"
      ],
      [
        "l",
        "ed"
      ],
      [
        "s",
        "ign"
      ],
      [
        "con",
        "su"
      ],
      [
        "japan",
        "ese"
      ],
      [
        "again",
        "st"
      ],
      [
        "do",
        "es"
      ],
      [
        "in",
        "come"
      ],
      [
        "ad",
        "v"
      ],
      [
        "so",
        "ci"
      ],
      [
        "sho",
        "w"
      ],
      [
        "ic",
        "k"
      ],
      [
        "issu",
        "e"
      ],
      [
        "m",
        "at"
      ],
      [
        "re",
        "ven"
      ],
      [
        "per",
        "i"
      ],
      [
        "f",
        "our"
      ],
      [
        "ic",
        "s"
      ],
      [
        "product",
        "s"
      ],
      [
        "us",
        "ed"
      ],
      [
        "re",
        "qu"
      ],
      [
        "we",
        "en"
      ],
      [
        "he",
        "ad"
      ],
      [
        "wor",
        "ld"
      ],
      [
        "ch",
        "ar"
      ],
      [
        "est",
        "im"
      ],
      [
        "end",
        "ing"
      ],
      [
        "bet",
        "ween"
      ],
      [
        "fe",
        "ll"
      ],
      [
        "l",
        "and"
      ],
      [
        "ac",
        "cor"
      ],
      [
        "bo",
        "th"
      ],
      [
        "wh",
        "ere"
      ],
      [
        "por",
        "ts"
      ],
      [
        "con",
        "gress"
      ],
      [
        "ion",
        "al"
      ],
      [
        "lo",
        "wer"
      ],
      [
        "emp",
        "loy"
      ],
      [
        "at",
        "ive"
      ],
      [
        "il",
        "y"
      ],
      [
        "v",
        "ent"
      ],
      [
        "le",
        "t"
      ],
      [
        "comm",
        "it"
      ],
      [
        "r",
        "y"
      ],
      [
        "de",
        "part"
      ],
      [
        "fund",
        "s"
      ],
      [
        "c",
        "es"
      ],
      [
        "market",
        "s"
      ],
      [
        "e",
        "lect"
      ],
      [
        "i",
        "str"
      ],
      [
        "reven",
        "ue"
      ],
      [
        "bas",
        "ed"
      ],
      [
        "v",
        "es"
      ],
      [
        "comput",
        "er"
      ],
      [
        "cour",
        "t"
      ],
      [
        "vie",
        "w"
      ],
      [
        "br",
        "it"
      ],
      [
        "sear",
        "ch"
      ],
      [
        "inter",
        "national"
      ],
      [
        "clo",
        "se"
      ],
      [
        "the",
        "n"
      ],
      [
        "sh",
        "ould"
      ],
      [
        "sm",
        "all"
      ],
      [
        "develo",
        "p"
      ],
      [
        "u",
        "es"
      ],
      [
        "an",
        "n"
      ],
      [
        "a",
        "id"
      ],
      [
        "a",
        "verage"
      ],
      [
        "f",
        "l"
      ],
      [
        "te",
        "ch"
      ],
      [
        "d",
        "rop"
      ],
      [
        "f",
        "ul"
      ],
      [
        "d",
        "uring"
      ],
      [
        "e",
        "u"
      ],
      [
        "min",
        "istr"
      ],
      [
        "w",
        "r"
      ],
      [
        "st",
        "re"
      ],
      [
        "lin",
        "es"
      ],
      [
        "an",
        "other"
      ],
      [
        "fore",
        "ign"
      ],
      [
        "cred",
        "it"
      ],
      [
        "ag",
        "ree"
      ],
      [
        "pur",
        "ch"
      ],
      [
        "i",
        "ed"
      ],
      [
        "t",
        "en"
      ],
      [
        "to",
        "tal"
      ],
      [
        "high",
        "er"
      ],
      [
        "spo",
        "kes"
      ],
      [
        "re",
        "l"
      ],
      [
        "report",
        "ed"
      ],
      [
        "deb",
        "t"
      ],
      [
        "ist",
        "s"
      ],
      [
        "se",
        "ver"
      ],
      [
        "m",
        "or"
      ],
      [
        "com",
        "mon"
      ],
      [
        "ho",
        "w"
      ],
      [
        "re",
        "du"
      ],
      [
        "comm",
        "un"
      ],
      [
        "s",
        "ou"
      ],
      [
        "inclu",
        "ding"
      ],
      [
        "am",
        "ong"
      ],
      [
        "i",
        "b"
      ],
      [
        "v",
        "ice"
      ],
      [
        "an",
        "ts"
      ],
      [
        "be",
        "ing"
      ],
      [
        "e",
        "ach"
      ],
      [
        "h",
        "n"
      ],
      [
        "h",
        "im"
      ],
      [
        "accor",
        "ding"
      ],
      [
        "eu",
        "ro"
      ],
      [
        "insur",
        "ance"
      ],
      [
        "an",
        "no"
      ],
      [
        "ne",
        "ed"
      ],
      [
        "anno",
        "un"
      ],
      [
        "co",
        "l"
      ],
      [
        "e",
        "p"
      ],
      [
        "s",
        "an"
      ],
      [
        "trad",
        "e"
      ],
      [
        "sid",
        "er"
      ],
      [
        "d",
        "if"
      ],
      [
        "re",
        "ed"
      ],
      [
        "re",
        "main"
      ],
      [
        "pol",
        "it"
      ],
      [
        "man",
        "age"
      ],
      [
        "p",
        "ers"
      ],
      [
        "re",
        "search"
      ],
      [
        "ag",
        "en"
      ],
      [
        "as",
        "soci"
      ],
      [
        "al",
        "th"
      ],
      [
        "u",
        "se"
      ],
      [
        "p",
        "ast"
      ],
      [
        "ul",
        "ar"
      ],
      [
        "oper",
        "ations"
      ],
      [
        "f",
        "ive"
      ],
      [
        "l",
        "it"
      ],
      [
        "l",
        "low"
      ],
      [
        "re",
        "ce"
      ],
      [
        "i",
        "or"
      ],
      [
        "n",
        "um"
      ],
      [
        "depart",
        "ment"
      ],
      [
        "lo",
        "ok"
      ],
      [
        "sal",
        "e"
      ],
      [
        "i",
        "but"
      ],
      [
        "we",
        "ver"
      ],
      [
        "ac",
        "coun"
      ],
      [
        "ho",
        "wever"
      ],
      [
        "inst",
        "itut"
      ],
      [
        "t",
        "ak"
      ],
      [
        "b",
        "en"
      ],
      [
        "s",
        "im"
      ],
      [
        "an",
        "ge"
      ],
      [
        "er",
        "n"
      ],
      [
        "add",
        "ition"
      ],
      [
        "so",
        "ld"
      ],
      [
        "pl",
        "ans"
      ],
      [
        "w",
        "ant"
      ],
      [
        "w",
        "ard"
      ],
      [
        "cer",
        "tain"
      ],
      [
        "econom",
        "ic"
      ],
      [
        "h",
        "u"
      ],
      [
        "mo",
        "ve"
      ],
      [
        "v",
        "ing"
      ],
      [
        "te",
        "le"
      ],
      [
        "me",
        "et"
      ],
      [
        "pres",
        "s"
      ],
      [
        "t",
        "im"
      ],
      [
        "y",
        "o"
      ],
      [
        "hel",
        "p"
      ],
      [
        "f",
        "ur"
      ],
      [
        "hold",
        "ers"
      ],
      [
        "manage",
        "ment"
      ],
      [
        "con",
        "sider"
      ],
      [
        "e",
        "very"
      ],
      [
        "h",
        "al"
      ],
      [
        "th",
        "ink"
      ],
      [
        "id",
        "ay"
      ],
      [
        "euro",
        "pe"
      ],
      [
        "as",
        "k"
      ],
      [
        "se",
        "cond"
      ],
      [
        "grow",
        "th"
      ],
      [
        "ho",
        "me"
      ],
      [
        "cor",
        "por"
      ],
      [
        "t",
        "reas"
      ],
      [
        "read",
        "y"
      ],
      [
        "mo",
        "t"
      ],
      [
        "issu",
        "es"
      ],
      [
        "increas",
        "e"
      ],
      [
        "ter",
        "m"
      ],
      [
        "bu",
        "sh"
      ],
      [
        "g",
        "a"
      ],
      [
        "ap",
        "er"
      ],
      [
        "stru",
        "ct"
      ],
      [
        "j",
        "ud"
      ],
      [
        "m",
        "et"
      ],
      [
        "bank",
        "s"
      ],
      [
        "vi",
        "ous"
      ],
      [
        "sever",
        "al"
      ],
      [
        "m",
        "ers"
      ],
      [
        "y",
        "en"
      ],
      [
        "re",
        "turn"
      ],
      [
        "st",
        "ed"
      ],
      [
        "vi",
        "et"
      ],
      [
        "p",
        "et"
      ],
      [
        "as",
        "se"
      ],
      [
        "o",
        "il"
      ],
      [
        "call",
        "ed"
      ],
      [
        "ce",
        "ed"
      ],
      [
        "en",
        "g"
      ],
      [
        "so",
        "l"
      ],
      [
        "du",
        "e"
      ],
      [
        "new",
        "s"
      ],
      [
        "fo",
        "llow"
      ],
      [
        "ta",
        "il"
      ],
      [
        "e",
        "ast"
      ],
      [
        "pos",
        "ed"
      ],
      [
        "fr",
        "anc"
      ],
      [
        "jo",
        "hn"
      ],
      [
        "po",
        "wer"
      ],
      [
        "i",
        "red"
      ],
      [
        "treas",
        "ury"
      ],
      [
        "b",
        "ar"
      ],
      [
        "fe",
        "w"
      ],
      [
        "p",
        "on"
      ],
      [
        "ro",
        "w"
      ],
      [
        "su",
        "c"
      ],
      [
        "te",
        "e"
      ],
      [
        "pl",
        "ay"
      ],
      [
        "re",
        "f"
      ],
      [
        "in",
        "s"
      ],
      [
        "contro",
        "l"
      ],
      [
        "stre",
        "et"
      ],
      [
        "s",
        "l"
      ],
      [
        "tr",
        "ans"
      ],
      [
        "he",
        "alth"
      ],
      [
        "pol",
        "ic"
      ],
      [
        "cas",
        "h"
      ],
      [
        "i",
        "o"
      ],
      [
        "o",
        "ld"
      ],
      [
        "ad",
        "ministr"
      ],
      [
        "comp",
        "et"
      ],
      [
        "le",
        "vel"
      ],
      [
        "su",
        "re"
      ],
      [
        "cost",
        "s"
      ],
      [
        "ann",
        "ual"
      ],
      [
        "m",
        "ight"
      ],
      [
        "are",
        "n"
      ],
      [
        "m",
        "i"
      ],
      [
        "str",
        "ong"
      ],
      [
        "fr",
        "iday"
      ],
      [
        "d",
        "am"
      ],
      [
        "is",
        "ing"
      ],
      [
        "af",
        "f"
      ],
      [
        "sup",
        "port"
      ],
      [
        "c",
        "ity"
      ],
      [
        "h",
        "and"
      ],
      [
        "k",
        "s"
      ],
      [
        "op",
        "en"
      ],
      [
        "direct",
        "or"
      ],
      [
        "qu",
        "ake"
      ],
      [
        "trad",
        "ers"
      ],
      [
        "num",
        "ber"
      ],
      [
        "se",
        "e"
      ],
      [
        "be",
        "li"
      ],
      [
        "de",
        "l"
      ],
      [
        "v",
        "ed"
      ],
      [
        "re",
        "cor"
      ],
      [
        "si",
        "x"
      ],
      [
        "on",
        "es"
      ],
      [
        "de",
        "m"
      ],
      [
        "so",
        "viet"
      ],
      [
        "fut",
        "ures"
      ],
      [
        "n",
        "am"
      ],
      [
        "w",
        "a"
      ],
      [
        "is",
        "ed"
      ],
      [
        "off",
        "ice"
      ],
      [
        "add",
        "ed"
      ],
      [
        "spe",
        "cial"
      ],
      [
        "r",
        "un"
      ],
      [
        "i",
        "for"
      ],
      [
        "for",
        "mer"
      ],
      [
        "cal",
        "ifor"
      ],
      [
        "ef",
        "fect"
      ],
      [
        "califor",
        "n"
      ],
      [
        "for",
        "d"
      ],
      [
        "ate",
        "ly"
      ],
      [
        "pos",
        "si"
      ],
      [
        "f",
        "am"
      ],
      [
        "cle",
        "ar"
      ],
      [
        "o",
        "c"
      ],
      [
        "vo",
        "l"
      ],
      [
        "offic",
        "er"
      ],
      [
        "sh",
        "ip"
      ],
      [
        "sh",
        "ort"
      ],
      [
        "bro",
        "k"
      ],
      [
        "u",
        "fact"
      ],
      [
        "al",
        "ready"
      ],
      [
        "man",
        "ufact"
      ],
      [
        "te",
        "st"
      ],
      [
        "pre",
        "vious"
      ],
      [
        "serv",
        "ices"
      ],
      [
        "a",
        "z"
      ],
      [
        "a",
        "mo"
      ],
      [
        "le",
        "ast"
      ],
      [
        "asse",
        "ts"
      ],
      [
        "recor",
        "d"
      ],
      [
        "californ",
        "ia"
      ],
      [
        "p",
        "ly"
      ],
      [
        "w",
        "all"
      ],
      [
        "oper",
        "ating"
      ],
      [
        "i",
        "ous"
      ],
      [
        "on",
        "al"
      ],
      [
        "spokes",
        "man"
      ],
      [
        "al",
        "s"
      ],
      [
        "com",
        "mer"
      ],
      [
        "resu",
        "l"
      ],
      [
        "agen",
        "cy"
      ],
      [
        "hal",
        "f"
      ],
      [
        "o",
        "ct"
      ],
      [
        "part",
        "ic"
      ],
      [
        "brit",
        "ish"
      ],
      [
        "go",
        "ing"
      ],
      [
        "st",
        "art"
      ],
      [
        "to",
        "o"
      ],
      [
        "ge",
        "st"
      ],
      [
        "cas",
        "e"
      ],
      [
        "c",
        "li"
      ],
      [
        "iz",
        "ed"
      ],
      [
        "val",
        "ue"
      ],
      [
        "m",
        "en"
      ],
      [
        "m",
        "ber"
      ],
      [
        "p",
        "tem"
      ],
      [
        "se",
        "ptem"
      ],
      [
        "septem",
        "ber"
      ],
      [
        "f",
        "ac"
      ],
      [
        "sa",
        "me"
      ],
      [
        "dec",
        "lin"
      ],
      [
        "m",
        "ach"
      ],
      [
        "m",
        "y"
      ],
      [
        "iss",
        "ion"
      ],
      [
        "unt",
        "il"
      ],
      [
        "peri",
        "od"
      ],
      [
        "c",
        "la"
      ],
      [
        "ent",
        "ial"
      ],
      [
        "au",
        "to"
      ],
      [
        "un",
        "ion"
      ],
      [
        "st",
        "ake"
      ],
      [
        "sou",
        "th"
      ],
      [
        "s",
        "w"
      ],
      [
        "u",
        "g"
      ],
      [
        "pr",
        "ic"
      ],
      [
        "ap",
        "prov"
      ],
      [
        "at",
        "ors"
      ],
      [
        "agree",
        "ment"
      ],
      [
        "like",
        "ly"
      ],
      [
        "to",
        "day"
      ],
      [
        "pro",
        "ject"
      ],
      [
        "lit",
        "tle"
      ],
      [
        "commit",
        "tee"
      ],
      [
        "u",
        "ed"
      ],
      [
        "v",
        "ir"
      ],
      [
        "mak",
        "er"
      ],
      [
        "cla",
        "im"
      ],
      [
        "m",
        "il"
      ],
      [
        "her",
        "e"
      ],
      [
        "c",
        "l"
      ],
      [
        "s",
        "s"
      ],
      [
        "di",
        "str"
      ],
      [
        "ef",
        "for"
      ],
      [
        "c",
        "us"
      ],
      [
        "spe",
        "c"
      ],
      [
        "au",
        "g"
      ],
      [
        "go",
        "ld"
      ],
      [
        "igh",
        "ts"
      ],
      [
        "f",
        "all"
      ],
      [
        "ce",
        "pt"
      ],
      [
        "pr",
        "iv"
      ],
      [
        "cu",
        "sto"
      ],
      [
        "wh",
        "e"
      ],
      [
        "comp",
        "le"
      ],
      [
        "pres",
        "ent"
      ],
      [
        "ca",
        "me"
      ],
      [
        "st",
        "ud"
      ],
      [
        "serv",
        "ice"
      ],
      [
        "k",
        "now"
      ],
      [
        "ar",
        "o"
      ],
      [
        "ag",
        "reed"
      ],
      [
        "ber",
        "t"
      ],
      [
        "ord",
        "er"
      ],
      [
        "v",
        "ers"
      ],
      [
        "can",
        "ad"
      ],
      [
        "d",
        "er"
      ],
      [
        "no",
        "lo"
      ],
      [
        "pos",
        "ition"
      ],
      [
        "tech",
        "nolo"
      ],
      [
        "en",
        "se"
      ],
      [
        "est",
        "ate"
      ],
      [
        "dr",
        "ug"
      ],
      [
        "ear",
        "th"
      ],
      [
        "dem",
        "and"
      ],
      [
        "n",
        "ers"
      ],
      [
        "res",
        "er"
      ],
      [
        "resul",
        "ts"
      ],
      [
        "ap",
        "pro"
      ],
      [
        "administr",
        "ation"
      ],
      [
        "sel",
        "f"
      ],
      [
        "s",
        "ing"
      ],
      [
        "ag",
        "es"
      ],
      [
        "ver",
        "t"
      ],
      [
        "ent",
        "er"
      ],
      [
        "with",
        "out"
      ],
      [
        "coun",
        "try"
      ],
      [
        "employ",
        "e"
      ],
      [
        "d",
        "ed"
      ],
      [
        "r",
        "ight"
      ],
      [
        "re",
        "ach"
      ],
      [
        "ne",
        "y"
      ],
      [
        "ind",
        "ic"
      ],
      [
        "g",
        "reat"
      ],
      [
        "m",
        "ort"
      ],
      [
        "econom",
        "y"
      ],
      [
        "acqu",
        "is"
      ],
      [
        "proble",
        "ms"
      ],
      [
        "corpor",
        "ate"
      ],
      [
        "aro",
        "und"
      ],
      [
        "h",
        "ip"
      ],
      [
        "se",
        "em"
      ],
      [
        "li",
        "fe"
      ],
      [
        "offer",
        "ing"
      ],
      [
        "c",
        "lu"
      ],
      [
        "h",
        "ard"
      ],
      [
        "fir",
        "ms"
      ],
      [
        "j",
        "unk"
      ],
      [
        "to",
        "p"
      ],
      [
        "produ",
        "ction"
      ],
      [
        "reg",
        "ul"
      ],
      [
        "m",
        "ic"
      ],
      [
        "an",
        "sa"
      ],
      [
        "se",
        "ek"
      ],
      [
        "tr",
        "ansa"
      ],
      [
        "po",
        "sal"
      ],
      [
        "op",
        "t"
      ],
      [
        "large",
        "st"
      ],
      [
        "resu",
        "lt"
      ],
      [
        "lo",
        "ans"
      ],
      [
        "im",
        "port"
      ],
      [
        "buy",
        "ing"
      ],
      [
        "industr",
        "ial"
      ],
      [
        "polic",
        "y"
      ],
      [
        "c",
        "are"
      ],
      [
        "str",
        "ate"
      ],
      [
        "end",
        "s"
      ],
      [
        "polit",
        "ical"
      ],
      [
        "f",
        "ail"
      ],
      [
        "de",
        "mo"
      ],
      [
        "do",
        "w"
      ],
      [
        "demo",
        "cr"
      ],
      [
        "al",
        "though"
      ],
      [
        "ag",
        "ed"
      ],
      [
        "pl",
        "ace"
      ],
      [
        "chan",
        "ges"
      ],
      [
        "increas",
        "ed"
      ],
      [
        "whe",
        "ther"
      ],
      [
        "w",
        "at"
      ],
      [
        "me",
        "mb"
      ],
      [
        "comp",
        "ared"
      ],
      [
        "memb",
        "ers"
      ],
      [
        "g",
        "as"
      ],
      [
        "s",
        "y"
      ],
      [
        "al",
        "low"
      ],
      [
        "not",
        "es"
      ],
      [
        "ough",
        "t"
      ],
      [
        "way",
        "s"
      ],
      [
        "recent",
        "ly"
      ],
      [
        "aren",
        "t"
      ],
      [
        "co",
        "ver"
      ],
      [
        "no",
        "v"
      ],
      [
        "he",
        "ld"
      ],
      [
        "o",
        "b"
      ],
      [
        "pro",
        "posal"
      ],
      [
        "ul",
        "t"
      ],
      [
        "fur",
        "ther"
      ],
      [
        "b",
        "ur"
      ],
      [
        "s",
        "ide"
      ],
      [
        "be",
        "gin"
      ],
      [
        "in",
        "ts"
      ],
      [
        "gain",
        "s"
      ],
      [
        "mort",
        "g"
      ],
      [
        "f",
        "ig"
      ],
      [
        "r",
        "u"
      ],
      [
        "ab",
        "or"
      ],
      [
        "fo",
        "und"
      ],
      [
        "d",
        "en"
      ],
      [
        "w",
        "ide"
      ],
      [
        "for",
        "ce"
      ],
      [
        "pl",
        "ant"
      ],
      [
        "iv",
        "ed"
      ],
      [
        "vo",
        "lu"
      ],
      [
        "pro",
        "per"
      ],
      [
        "f",
        "ic"
      ],
      [
        "as",
        "h"
      ],
      [
        "am",
        "es"
      ],
      [
        "mon",
        "day"
      ],
      [
        "y",
        "et"
      ],
      [
        "at",
        "a"
      ],
      [
        "contin",
        "ue"
      ],
      [
        "stand",
        "ing"
      ],
      [
        "l",
        "ond"
      ],
      [
        "n",
        "at"
      ],
      [
        "is",
        "co"
      ],
      [
        "lond",
        "on"
      ],
      [
        "c",
        "ast"
      ],
      [
        "o",
        "t"
      ],
      [
        "ic",
        "ations"
      ],
      [
        "qu",
        "est"
      ],
      [
        "in",
        "vol"
      ],
      [
        "loss",
        "es"
      ],
      [
        "b",
        "lo"
      ],
      [
        "po",
        "ints"
      ],
      [
        "take",
        "over"
      ],
      [
        "volu",
        "me"
      ],
      [
        "system",
        "s"
      ],
      [
        "f",
        "u"
      ],
      [
        "i",
        "me"
      ],
      [
        "il",
        "d"
      ],
      [
        "lo",
        "an"
      ],
      [
        "li",
        "mit"
      ],
      [
        "pos",
        "ite"
      ],
      [
        "aug",
        "ust"
      ],
      [
        "p",
        "aper"
      ],
      [
        "su",
        "g"
      ],
      [
        "lt",
        "d"
      ],
      [
        "sell",
        "ing"
      ],
      [
        "d",
        "ata"
      ],
      [
        "it",
        "ions"
      ],
      [
        "ab",
        "ility"
      ],
      [
        "sub",
        "sid"
      ],
      [
        "dif",
        "fer"
      ],
      [
        "b",
        "or"
      ],
      [
        "g",
        "re"
      ],
      [
        "r",
        "i"
      ],
      [
        "st",
        "on"
      ],
      [
        "jud",
        "ge"
      ],
      [
        "m",
        "ust"
      ],
      [
        "n",
        "ed"
      ],
      [
        "t",
        "ex"
      ],
      [
        "in",
        "es"
      ],
      [
        "ing",
        "ton"
      ],
      [
        "f",
        "is"
      ],
      [
        "me",
        "an"
      ],
      [
        "act",
        "ion"
      ],
      [
        "comm",
        "ission"
      ],
      [
        "expect",
        "s"
      ],
      [
        "div",
        "id"
      ],
      [
        "ben",
        "ef"
      ],
      [
        "pric",
        "ed"
      ],
      [
        "f",
        "ree"
      ],
      [
        "su",
        "it"
      ],
      [
        "tr",
        "ust"
      ],
      [
        "fo",
        "od"
      ],
      [
        "ke",
        "ep"
      ],
      [
        "c",
        "it"
      ],
      [
        "s",
        "low"
      ],
      [
        "tim",
        "es"
      ],
      [
        "p",
        "ack"
      ],
      [
        "act",
        "iv"
      ],
      [
        "possi",
        "ble"
      ],
      [
        "h",
        "ear"
      ],
      [
        "m",
        "ag"
      ],
      [
        "announ",
        "ced"
      ],
      [
        "declin",
        "ed"
      ],
      [
        "earth",
        "quake"
      ],
      [
        "me",
        "as"
      ],
      [
        "ual",
        "ly"
      ],
      [
        "work",
        "ers"
      ],
      [
        "purch",
        "ase"
      ],
      [
        "wh",
        "ite"
      ],
      [
        "iz",
        "e"
      ],
      [
        "iz",
        "ation"
      ],
      [
        "technolo",
        "gy"
      ],
      [
        "fis",
        "cal"
      ],
      [
        "r",
        "ul"
      ],
      [
        "lo",
        "t"
      ],
      [
        "iv",
        "ers"
      ],
      [
        "wr",
        "it"
      ],
      [
        "ord",
        "ers"
      ],
      [
        "franc",
        "isco"
      ],
      [
        "ag",
        "u"
      ],
      [
        "ig",
        "ation"
      ],
      [
        "week",
        "s"
      ],
      [
        "sen",
        "ate"
      ],
      [
        "ch",
        "em"
      ],
      [
        "ad",
        "vert"
      ],
      [
        "pro",
        "m"
      ],
      [
        "res",
        "pon"
      ],
      [
        "mak",
        "ing"
      ],
      [
        "d",
        "y"
      ],
      [
        "sen",
        "ior"
      ],
      [
        "b",
        "s"
      ],
      [
        "p",
        "aid"
      ],
      [
        "be",
        "come"
      ],
      [
        "com",
        "posite"
      ],
      [
        "b",
        "it"
      ],
      [
        "business",
        "es"
      ],
      [
        "proble",
        "m"
      ],
      [
        "develop",
        "ment"
      ],
      [
        "commer",
        "cial"
      ],
      [
        "s",
        "ci"
      ],
      [
        "ch",
        "in"
      ],
      [
        "ref",
        "lect"
      ],
      [
        "are",
        "a"
      ],
      [
        "su",
        "m"
      ],
      [
        "ab",
        "ly"
      ],
      [
        "g",
        "ive"
      ],
      [
        "co",
        "up"
      ],
      [
        "or",
        "gan"
      ],
      [
        "com",
        "ment"
      ],
      [
        "estim",
        "ated"
      ],
      [
        "n",
        "al"
      ],
      [
        "n",
        "early"
      ],
      [
        "u",
        "su"
      ],
      [
        "mak",
        "ers"
      ],
      [
        "buil",
        "ding"
      ],
      [
        "d",
        "ou"
      ],
      [
        "was",
        "h"
      ],
      [
        "ser",
        "ies"
      ],
      [
        "associ",
        "ation"
      ],
      [
        "chem",
        "ical"
      ],
      [
        "ic",
        "ago"
      ],
      [
        "ch",
        "icago"
      ],
      [
        "n",
        "a"
      ],
      [
        "ste",
        "ad"
      ],
      [
        "re",
        "st"
      ],
      [
        "pro",
        "te"
      ],
      [
        "leg",
        "is"
      ],
      [
        "democr",
        "at"
      ],
      [
        "b",
        "al"
      ],
      [
        "to",
        "ok"
      ],
      [
        "pro",
        "ve"
      ],
      [
        "b",
        "re"
      ],
      [
        "d",
        "s"
      ],
      [
        "h",
        "ur"
      ],
      [
        "un",
        "g"
      ],
      [
        "amp",
        "le"
      ],
      [
        "n",
        "ine"
      ],
      [
        "re",
        "tail"
      ],
      [
        "le",
        "y"
      ],
      [
        "law",
        "y"
      ],
      [
        "employe",
        "es"
      ],
      [
        "j",
        "ones"
      ],
      [
        "y",
        "our"
      ],
      [
        "te",
        "l"
      ],
      [
        "hold",
        "ing"
      ],
      [
        "f",
        "t"
      ],
      [
        "t",
        "v"
      ],
      [
        "se",
        "as"
      ],
      [
        "sh",
        "ar"
      ],
      [
        "bro",
        "ad"
      ],
      [
        "at",
        "tr"
      ],
      [
        "au",
        "th"
      ],
      [
        "stand",
        "ard"
      ],
      [
        "r",
        "on"
      ],
      [
        "r",
        "up"
      ],
      [
        "iv",
        "id"
      ],
      [
        "fr",
        "an"
      ],
      [
        "dec",
        "line"
      ],
      [
        "des",
        "ign"
      ],
      [
        "h",
        "our"
      ],
      [
        "part",
        "ners"
      ],
      [
        "i",
        "ther"
      ],
      [
        "l",
        "abor"
      ],
      [
        "r",
        "ights"
      ],
      [
        "bu",
        "d"
      ],
      [
        "ris",
        "k"
      ],
      [
        "of",
        "ten"
      ],
      [
        "to",
        "ber"
      ],
      [
        "lat",
        "er"
      ],
      [
        "late",
        "st"
      ],
      [
        "oc",
        "tober"
      ],
      [
        "amo",
        "unt"
      ],
      [
        "e",
        "as"
      ],
      [
        "p",
        "ac"
      ],
      [
        "in",
        "form"
      ],
      [
        "pro",
        "cess"
      ],
      [
        "ex",
        "ample"
      ],
      [
        "offer",
        "ed"
      ],
      [
        "ind",
        "ivid"
      ],
      [
        "suc",
        "cess"
      ],
      [
        "acquis",
        "ition"
      ],
      [
        "individ",
        "ual"
      ],
      [
        "s",
        "ent"
      ],
      [
        "t",
        "ues"
      ],
      [
        "americ",
        "a"
      ],
      [
        "meet",
        "ing"
      ],
      [
        "tues",
        "day"
      ],
      [
        "g",
        "ing"
      ],
      [
        "p",
        "at"
      ],
      [
        "reas",
        "on"
      ],
      [
        "d",
        "a"
      ],
      [
        "r",
        "ich"
      ],
      [
        "s",
        "it"
      ],
      [
        "tex",
        "as"
      ],
      [
        "p",
        "ite"
      ],
      [
        "we",
        "ak"
      ],
      [
        "des",
        "pite"
      ],
      [
        "po",
        "t"
      ],
      [
        "chan",
        "ged"
      ],
      [
        "prov",
        "id"
      ],
      [
        "current",
        "ly"
      ],
      [
        "g",
        "iv"
      ],
      [
        "re",
        "present"
      ],
      [
        "other",
        "s"
      ],
      [
        "execut",
        "ives"
      ],
      [
        "bud",
        "get"
      ],
      [
        "r",
        "ise"
      ],
      [
        "on",
        "ce"
      ],
      [
        "ro",
        "ss"
      ],
      [
        "pro",
        "posed"
      ],
      [
        "he",
        "av"
      ],
      [
        "ste",
        "el"
      ],
      [
        "wash",
        "ington"
      ],
      [
        "pac",
        "ific"
      ],
      [
        "o",
        "ol"
      ],
      [
        "un",
        "e"
      ],
      [
        "tr",
        "a"
      ],
      [
        "ne",
        "ver"
      ],
      [
        "bet",
        "ter"
      ],
      [
        "sch",
        "ool"
      ],
      [
        "ur",
        "al"
      ],
      [
        "ne",
        "go"
      ],
      [
        "go",
        "t"
      ],
      [
        "nego",
        "ti"
      ],
      [
        "w",
        "in"
      ],
      [
        "un",
        "ivers"
      ],
      [
        "ch",
        "o"
      ],
      [
        "invest",
        "or"
      ],
      [
        "buil",
        "d"
      ],
      [
        "k",
        "ing"
      ],
      [
        "k",
        "no"
      ],
      [
        "sp",
        "ending"
      ],
      [
        "fut",
        "ure"
      ],
      [
        "auth",
        "or"
      ],
      [
        "de",
        "li"
      ],
      [
        "ge",
        "or"
      ],
      [
        "priv",
        "ate"
      ],
      [
        "j",
        "u"
      ],
      [
        "p",
        "an"
      ],
      [
        "st",
        "er"
      ],
      [
        "al",
        "most"
      ],
      [
        "ro",
        "bert"
      ],
      [
        "1",
        "9"
      ],
      [
        "at",
        "or"
      ],
      [
        "publ",
        "ish"
      ],
      [
        "cre",
        "t"
      ],
      [
        "commun",
        "ications"
      ],
      [
        "rece",
        "ived"
      ],
      [
        "dam",
        "age"
      ],
      [
        "v",
        "ia"
      ],
      [
        "ter",
        "ms"
      ],
      [
        "leg",
        "al"
      ],
      [
        "st",
        "ates"
      ],
      [
        "ical",
        "ly"
      ],
      [
        "app",
        "ear"
      ],
      [
        "nam",
        "ed"
      ],
      [
        "mortg",
        "age"
      ],
      [
        "rup",
        "t"
      ],
      [
        "re",
        "struct"
      ],
      [
        "ph",
        "one"
      ],
      [
        "mag",
        "az"
      ],
      [
        "ro",
        "le"
      ],
      [
        "partic",
        "ular"
      ],
      [
        "k",
        "o"
      ],
      [
        "re",
        "p"
      ],
      [
        "ch",
        "arge"
      ],
      [
        "ct",
        "ions"
      ],
      [
        "bl",
        "ack"
      ],
      [
        "fil",
        "ed"
      ],
      [
        "custo",
        "mers"
      ],
      [
        "to",
        "k"
      ],
      [
        "with",
        "in"
      ],
      [
        "dec",
        "ision"
      ],
      [
        "equ",
        "ip"
      ],
      [
        "inform",
        "ation"
      ],
      [
        "d",
        "re"
      ],
      [
        "il",
        "ities"
      ],
      [
        "bo",
        "o"
      ],
      [
        "ap",
        "pe"
      ],
      [
        "inclu",
        "de"
      ],
      [
        "def",
        "ense"
      ],
      [
        "c",
        "amp"
      ],
      [
        "in",
        "it"
      ],
      [
        "et",
        "y"
      ],
      [
        "div",
        "ision"
      ],
      [
        "te",
        "ll"
      ],
      [
        "financ",
        "ing"
      ],
      [
        "a",
        "th"
      ],
      [
        "l",
        "ing"
      ],
      [
        "ch",
        "e"
      ],
      [
        "purch",
        "as"
      ],
      [
        "subsid",
        "i"
      ],
      [
        "i",
        "x"
      ],
      [
        "p",
        "en"
      ],
      [
        "en",
        "ough"
      ],
      [
        "be",
        "gan"
      ],
      [
        "cr",
        "it"
      ],
      [
        "contin",
        "ued"
      ],
      [
        "w",
        "ed"
      ],
      [
        "po",
        "st"
      ],
      [
        "wo",
        "man"
      ],
      [
        "net",
        "work"
      ],
      [
        "stru",
        "ction"
      ],
      [
        "m",
        "id"
      ],
      [
        "ic",
        "ip"
      ],
      [
        "out",
        "standing"
      ],
      [
        "try",
        "ing"
      ],
      [
        "in",
        "fl"
      ],
      [
        "or",
        "ney"
      ],
      [
        "en",
        "vir"
      ],
      [
        "to",
        "ld"
      ],
      [
        "ive",
        "ly"
      ],
      [
        "bank",
        "ing"
      ],
      [
        "att",
        "orney"
      ],
      [
        "equip",
        "ment"
      ],
      [
        "envir",
        "on"
      ],
      [
        "r",
        "al"
      ],
      [
        "of",
        "t"
      ],
      [
        "equ",
        "ity"
      ],
      [
        "fu",
        "ll"
      ],
      [
        "f",
        "ace"
      ],
      [
        "co",
        "lu"
      ],
      [
        "lo",
        "cal"
      ],
      [
        "mo",
        "d"
      ],
      [
        "li",
        "o"
      ],
      [
        "fo",
        "lio"
      ],
      [
        "port",
        "folio"
      ],
      [
        "industr",
        "ies"
      ],
      [
        "war",
        "ner"
      ],
      [
        "al",
        "e"
      ],
      [
        "ment",
        "al"
      ],
      [
        "consu",
        "mer"
      ],
      [
        "drop",
        "ped"
      ],
      [
        "pot",
        "ential"
      ],
      [
        "h",
        "ous"
      ],
      [
        "j",
        "ames"
      ],
      [
        "p",
        "le"
      ],
      [
        "s",
        "c"
      ],
      [
        "ic",
        "it"
      ],
      [
        "se",
        "cret"
      ],
      [
        "jo",
        "int"
      ],
      [
        "mak",
        "es"
      ],
      [
        "program",
        "s"
      ],
      [
        "unit",
        "ed"
      ],
      [
        "dollar",
        "s"
      ],
      [
        "0",
        "s"
      ],
      [
        "h",
        "ar"
      ],
      [
        "comput",
        "ers"
      ],
      [
        "transa",
        "ction"
      ],
      [
        "ju",
        "ly"
      ],
      [
        "ct",
        "or"
      ],
      [
        "ord",
        "in"
      ],
      [
        "europe",
        "an"
      ],
      [
        "d",
        "av"
      ],
      [
        "se",
        "par"
      ],
      [
        "ad",
        "just"
      ],
      [
        "ab",
        "ort"
      ],
      [
        "us",
        "ing"
      ],
      [
        "fin",
        "ance"
      ],
      [
        "ste",
        "p"
      ],
      [
        "sign",
        "ific"
      ],
      [
        "accoun",
        "t"
      ],
      [
        "follow",
        "ing"
      ],
      [
        "brok",
        "er"
      ],
      [
        "a",
        "way"
      ],
      [
        "j",
        "agu"
      ],
      [
        "v",
        "ision"
      ],
      [
        "be",
        "st"
      ],
      [
        "if",
        "t"
      ],
      [
        "prov",
        "ide"
      ],
      [
        "west",
        "ern"
      ],
      [
        "consu",
        "lt"
      ],
      [
        "ibut",
        "ed"
      ],
      [
        "tok",
        "yo"
      ],
      [
        "infl",
        "ation"
      ],
      [
        "jagu",
        "ar"
      ],
      [
        "r",
        "an"
      ],
      [
        "s",
        "co"
      ],
      [
        "t",
        "rou"
      ],
      [
        "im",
        "prove"
      ],
      [
        "fin",
        "d"
      ],
      [
        "set",
        "tle"
      ],
      [
        "addition",
        "al"
      ],
      [
        "g",
        "m"
      ],
      [
        "s",
        "ed"
      ],
      [
        "so",
        "on"
      ],
      [
        "call",
        "s"
      ],
      [
        "manag",
        "ers"
      ],
      [
        "pers",
        "onal"
      ],
      [
        "g",
        "g"
      ],
      [
        "share",
        "holders"
      ],
      [
        "lead",
        "ers"
      ],
      [
        "import",
        "ant"
      ],
      [
        "kno",
        "wn"
      ],
      [
        "a",
        "w"
      ],
      [
        "e",
        "ve"
      ],
      [
        "t",
        "ar"
      ],
      [
        "in",
        "stead"
      ],
      [
        "ut",
        "ion"
      ],
      [
        "char",
        "ges"
      ],
      [
        "fam",
        "ily"
      ],
      [
        "claim",
        "s"
      ],
      [
        "univers",
        "ity"
      ],
      [
        "f",
        "ield"
      ],
      [
        "un",
        "its"
      ],
      [
        "be",
        "ll"
      ],
      [
        "com",
        "ing"
      ],
      [
        "tr",
        "u"
      ],
      [
        "av",
        "ail"
      ],
      [
        "s",
        "pect"
      ],
      [
        "s",
        "oft"
      ],
      [
        "y",
        "s"
      ],
      [
        "st",
        "ic"
      ],
      [
        "ab",
        "o"
      ],
      [
        "if",
        "ied"
      ],
      [
        "produ",
        "c"
      ],
      [
        "n",
        "ess"
      ],
      [
        "s",
        "our"
      ],
      [
        "th",
        "ings"
      ],
      [
        "con",
        "struction"
      ],
      [
        "mar",
        "ch"
      ],
      [
        "sch",
        "ed"
      ],
      [
        "tak",
        "en"
      ],
      [
        "signific",
        "ant"
      ],
      [
        "p",
        "end"
      ],
      [
        "r",
        "ange"
      ],
      [
        "il",
        "ar"
      ],
      [
        "pro",
        "b"
      ],
      [
        "comp",
        "l"
      ],
      [
        "market",
        "ing"
      ],
      [
        "deal",
        "ers"
      ],
      [
        "manag",
        "er"
      ],
      [
        "sim",
        "ilar"
      ],
      [
        "p",
        "il"
      ],
      [
        "tr",
        "ies"
      ],
      [
        "pr",
        "act"
      ],
      [
        "per",
        "for"
      ],
      [
        "t",
        "ies"
      ],
      [
        "it",
        "or"
      ],
      [
        "br",
        "and"
      ],
      [
        "bill",
        "s"
      ],
      [
        "ask",
        "ed"
      ],
      [
        "eng",
        "ine"
      ],
      [
        "m",
        "c"
      ],
      [
        "is",
        "ions"
      ],
      [
        "ul",
        "ation"
      ],
      [
        "increas",
        "ing"
      ],
      [
        "c",
        "ir"
      ],
      [
        "n",
        "ight"
      ],
      [
        "re",
        "v"
      ],
      [
        "at",
        "tem"
      ],
      [
        "ens",
        "ive"
      ],
      [
        "j",
        "une"
      ],
      [
        "who",
        "se"
      ],
      [
        "cal",
        "if"
      ],
      [
        "bas",
        "e"
      ],
      [
        "nor",
        "th"
      ],
      [
        "beli",
        "eve"
      ],
      [
        "h",
        "app"
      ],
      [
        "m",
        "iss"
      ],
      [
        "p",
        "ing"
      ],
      [
        "p",
        "ass"
      ],
      [
        "an",
        "e"
      ],
      [
        "is",
        "on"
      ],
      [
        "se",
        "pt"
      ],
      [
        "advert",
        "ising"
      ],
      [
        "abo",
        "ve"
      ],
      [
        "be",
        "low"
      ],
      [
        "ex",
        "peri"
      ],
      [
        "li",
        "es"
      ],
      [
        "bo",
        "dy"
      ],
      [
        "ra",
        "ise"
      ],
      [
        "f",
        "lo"
      ],
      [
        "t",
        "ers"
      ],
      [
        "sa",
        "v"
      ],
      [
        "lo",
        "st"
      ],
      [
        "po",
        "sted"
      ],
      [
        "mark",
        "s"
      ],
      [
        "get",
        "ting"
      ],
      [
        "rel",
        "ated"
      ],
      [
        "quest",
        "ion"
      ],
      [
        "v",
        "ict"
      ],
      [
        "th",
        "r"
      ],
      [
        "ch",
        "ed"
      ],
      [
        "te",
        "am"
      ],
      [
        "em",
        "er"
      ],
      [
        "sp",
        "ace"
      ],
      [
        "med",
        "i"
      ],
      [
        "sl",
        "ight"
      ],
      [
        "chin",
        "a"
      ],
      [
        "avail",
        "able"
      ],
      [
        "p",
        "act"
      ],
      [
        "p",
        "red"
      ],
      [
        "sto",
        "res"
      ],
      [
        "ip",
        "s"
      ],
      [
        "dis",
        "cus"
      ],
      [
        "ra",
        "ther"
      ],
      [
        "ger",
        "man"
      ],
      [
        "four",
        "th"
      ],
      [
        "cl",
        "ass"
      ],
      [
        "h",
        "it"
      ],
      [
        "j",
        "um"
      ],
      [
        "id",
        "ence"
      ],
      [
        "contract",
        "s"
      ],
      [
        "requ",
        "ire"
      ],
      [
        "own",
        "ers"
      ],
      [
        "inclu",
        "ded"
      ],
      [
        "secur",
        "ity"
      ],
      [
        "elect",
        "ron"
      ],
      [
        "c",
        "ation"
      ],
      [
        "m",
        "es"
      ],
      [
        "st",
        "ant"
      ],
      [
        "ap",
        "point"
      ],
      [
        "mar",
        "gin"
      ],
      [
        "iv",
        "al"
      ],
      [
        "bo",
        "ston"
      ],
      [
        "opt",
        "ions"
      ],
      [
        "fig",
        "ures"
      ],
      [
        "restruct",
        "uring"
      ],
      [
        "re",
        "public"
      ],
      [
        "re",
        "ports"
      ],
      [
        "al",
        "ter"
      ],
      [
        "qu",
        "ick"
      ],
      [
        "mr",
        "s"
      ],
      [
        "vo",
        "lat"
      ],
      [
        "ph",
        "il"
      ],
      [
        "subsidi",
        "ary"
      ],
      [
        "h",
        "op"
      ],
      [
        "le",
        "ft"
      ],
      [
        "ist",
        "er"
      ],
      [
        "not",
        "ed"
      ],
      [
        "beli",
        "ev"
      ],
      [
        "organ",
        "ization"
      ],
      [
        "is",
        "m"
      ],
      [
        "se",
        "cut"
      ],
      [
        "res",
        "ign"
      ],
      [
        "work",
        "ing"
      ],
      [
        "mean",
        "while"
      ],
      [
        "b",
        "ad"
      ],
      [
        "n",
        "es"
      ],
      [
        "bo",
        "ok"
      ],
      [
        "cent",
        "er"
      ],
      [
        "coun",
        "tries"
      ],
      [
        "dif",
        "fic"
      ],
      [
        "manufact",
        "ur"
      ],
      [
        "canad",
        "a"
      ],
      [
        "i",
        "am"
      ],
      [
        "st",
        "op"
      ],
      [
        "al",
        "ong"
      ],
      [
        "ar",
        "ily"
      ],
      [
        "will",
        "iam"
      ],
      [
        "pre",
        "fer"
      ],
      [
        "ange",
        "les"
      ],
      [
        "effor",
        "t"
      ],
      [
        "divid",
        "end"
      ],
      [
        "abort",
        "ion"
      ],
      [
        "sav",
        "ings"
      ],
      [
        "b",
        "ought"
      ],
      [
        "v",
        "is"
      ],
      [
        "it",
        "ary"
      ],
      [
        "it",
        "self"
      ],
      [
        "ex",
        "press"
      ],
      [
        "do",
        "me"
      ],
      [
        "bl",
        "ed"
      ],
      [
        "cas",
        "es"
      ],
      [
        "state",
        "ment"
      ],
      [
        "approv",
        "ed"
      ],
      [
        "prob",
        "ably"
      ],
      [
        "h",
        "ist"
      ],
      [
        "l",
        "ish"
      ],
      [
        "st",
        "aff"
      ],
      [
        "ex",
        "pl"
      ],
      [
        "po",
        "p"
      ],
      [
        "per",
        "cent"
      ],
      [
        "grow",
        "ing"
      ],
      [
        "ib",
        "m"
      ],
      [
        "blo",
        "ck"
      ],
      [
        "bre",
        "ak"
      ],
      [
        "lawy",
        "ers"
      ],
      [
        "th",
        "ur"
      ],
      [
        "se",
        "ven"
      ],
      [
        "dav",
        "id"
      ],
      [
        "k",
        "id"
      ],
      [
        "u",
        "ation"
      ],
      [
        "ro",
        "ad"
      ],
      [
        "ro",
        "du"
      ],
      [
        "ly",
        "n"
      ],
      [
        "ce",
        "ll"
      ],
      [
        "ke",
        "y"
      ],
      [
        "int",
        "rodu"
      ],
      [
        "increas",
        "es"
      ],
      [
        "gain",
        "ed"
      ],
      [
        "reach",
        "ed"
      ],
      [
        "secret",
        "ary"
      ],
      [
        "re",
        "str"
      ],
      [
        "od",
        "y"
      ],
      [
        "air",
        "lines"
      ],
      [
        "oper",
        "ation"
      ],
      [
        "car",
        "s"
      ],
      [
        "pay",
        "ments"
      ],
      [
        "col",
        "le"
      ],
      [
        "trans",
        "port"
      ],
      [
        "effor",
        "ts"
      ],
      [
        "b",
        "ay"
      ],
      [
        "e",
        "ither"
      ],
      [
        "f",
        "ast"
      ],
      [
        "h",
        "am"
      ],
      [
        "ch",
        "ild"
      ],
      [
        "ther",
        "n"
      ],
      [
        "ho",
        "l"
      ],
      [
        "ger",
        "many"
      ],
      [
        "adv",
        "anc"
      ],
      [
        "dome",
        "stic"
      ],
      [
        "li",
        "st"
      ],
      [
        "inde",
        "pend"
      ],
      [
        "def",
        "icit"
      ],
      [
        "announ",
        "ce"
      ],
      [
        "j",
        "our"
      ],
      [
        "n",
        "ear"
      ],
      [
        "co",
        "p"
      ],
      [
        "po",
        "und"
      ],
      [
        "fe",
        "el"
      ],
      [
        "tal",
        "ks"
      ],
      [
        "ful",
        "ly"
      ],
      [
        "na",
        "me"
      ],
      [
        "jour",
        "nal"
      ],
      [
        "r",
        "ill"
      ],
      [
        "or",
        "ies"
      ],
      [
        "pro",
        "ceed"
      ],
      [
        "ens",
        "ion"
      ],
      [
        "redu",
        "ce"
      ],
      [
        "tak",
        "ing"
      ],
      [
        "perfor",
        "man"
      ],
      [
        "u",
        "ary"
      ],
      [
        "re",
        "le"
      ],
      [
        "en",
        "ed"
      ],
      [
        "ar",
        "bit"
      ],
      [
        "ic",
        "le"
      ],
      [
        "ha",
        "ving"
      ],
      [
        "say",
        "ing"
      ],
      [
        "cr",
        "u"
      ],
      [
        "group",
        "s"
      ],
      [
        "lead",
        "ing"
      ],
      [
        "vent",
        "ure"
      ],
      [
        "previous",
        "ly"
      ],
      [
        "reser",
        "ve"
      ],
      [
        "differ",
        "ent"
      ],
      [
        "boo",
        "st"
      ],
      [
        "arbit",
        "r"
      ],
      [
        "p",
        "arent"
      ],
      [
        "com",
        "b"
      ],
      [
        "pl",
        "un"
      ],
      [
        "part",
        "y"
      ],
      [
        "coun",
        "ter"
      ],
      [
        "ty",
        "p"
      ],
      [
        "tele",
        "phone"
      ],
      [
        "approv",
        "al"
      ],
      [
        "giv",
        "en"
      ],
      [
        "e",
        "ver"
      ],
      [
        "f",
        "ear"
      ],
      [
        "m",
        "al"
      ],
      [
        "th",
        "om"
      ],
      [
        "en",
        "er"
      ],
      [
        "con",
        "ver"
      ],
      [
        "ter",
        "min"
      ],
      [
        "look",
        "ing"
      ],
      [
        "east",
        "ern"
      ],
      [
        "suc",
        "ceed"
      ],
      [
        "sug",
        "gest"
      ],
      [
        "f",
        "air"
      ],
      [
        "er",
        "ial"
      ],
      [
        "ll",
        "ed"
      ],
      [
        "own",
        "ed"
      ],
      [
        "prof",
        "its"
      ],
      [
        "gu",
        "ar"
      ],
      [
        "back",
        "ed"
      ],
      [
        "mb",
        "ia"
      ],
      [
        "mat",
        "erial"
      ],
      [
        "manufact",
        "uring"
      ],
      [
        "fran",
        "k"
      ],
      [
        "init",
        "ial"
      ],
      [
        "sched",
        "ul"
      ],
      [
        "g",
        "l"
      ],
      [
        "do",
        "ing"
      ],
      [
        "act",
        "ive"
      ],
      [
        "big",
        "gest"
      ],
      [
        "canad",
        "ian"
      ],
      [
        "gre",
        "en"
      ],
      [
        "tar",
        "get"
      ],
      [
        "ro",
        "om"
      ],
      [
        "invest",
        "ments"
      ],
      [
        "hel",
        "ped"
      ],
      [
        "acqu",
        "ired"
      ],
      [
        "good",
        "s"
      ],
      [
        "slight",
        "ly"
      ],
      [
        "g",
        "i"
      ],
      [
        "it",
        "ive"
      ],
      [
        "co",
        "ll"
      ],
      [
        "po",
        "or"
      ],
      [
        "bank",
        "rupt"
      ],
      [
        "ra",
        "ised"
      ],
      [
        "direct",
        "ors"
      ],
      [
        "strate",
        "gy"
      ],
      [
        "a",
        "ign"
      ],
      [
        "j",
        "an"
      ],
      [
        "de",
        "st"
      ],
      [
        "de",
        "pos"
      ],
      [
        "dis",
        "coun"
      ],
      [
        "mach",
        "ines"
      ],
      [
        "meas",
        "ure"
      ],
      [
        "camp",
        "aign"
      ],
      [
        "i",
        "ke"
      ],
      [
        "n",
        "i"
      ],
      [
        "s",
        "k"
      ],
      [
        "w",
        "are"
      ],
      [
        "wh",
        "y"
      ],
      [
        "im",
        "um"
      ],
      [
        "plan",
        "ts"
      ],
      [
        "prof",
        "ess"
      ],
      [
        "pers",
        "on"
      ],
      [
        "institut",
        "e"
      ],
      [
        "tele",
        "vision"
      ],
      [
        "mil",
        "itary"
      ],
      [
        "percent",
        "age"
      ],
      [
        "th",
        "reat"
      ],
      [
        "con",
        "fer"
      ],
      [
        "str",
        "al"
      ],
      [
        "pl",
        "ac"
      ],
      [
        "au",
        "stral"
      ],
      [
        "air",
        "line"
      ],
      [
        "med",
        "ical"
      ],
      [
        "cli",
        "ents"
      ],
      [
        "seek",
        "ing"
      ],
      [
        "performan",
        "ce"
      ],
      [
        "guar",
        "an"
      ],
      [
        "l",
        "ation"
      ],
      [
        "li",
        "min"
      ],
      [
        "sur",
        "pr"
      ],
      [
        "elect",
        "ric"
      ],
      [
        "brit",
        "ain"
      ],
      [
        "stud",
        "y"
      ],
      [
        "proper",
        "ty"
      ],
      [
        "heav",
        "y"
      ],
      [
        "ener",
        "gy"
      ],
      [
        "j",
        "r"
      ],
      [
        "al",
        "le"
      ],
      [
        "interest",
        "s"
      ],
      [
        "sel",
        "ves"
      ],
      [
        "sing",
        "le"
      ],
      [
        "c",
        "ies"
      ],
      [
        "f",
        "av"
      ],
      [
        "m",
        "ass"
      ],
      [
        "er",
        "o"
      ],
      [
        "en",
        "ces"
      ],
      [
        "ar",
        "gu"
      ],
      [
        "some",
        "thing"
      ],
      [
        "min",
        "or"
      ],
      [
        "curren",
        "cy"
      ],
      [
        "estim",
        "ates"
      ],
      [
        "remain",
        "s"
      ],
      [
        "mi",
        "x"
      ],
      [
        "fail",
        "ed"
      ],
      [
        "magaz",
        "ine"
      ],
      [
        "particular",
        "ly"
      ],
      [
        "b",
        "all"
      ],
      [
        "t",
        "end"
      ],
      [
        "v",
        "ar"
      ],
      [
        "w",
        "ent"
      ],
      [
        "in",
        "al"
      ],
      [
        "re",
        "co"
      ],
      [
        "ed",
        "u"
      ],
      [
        "fe",
        "es"
      ],
      [
        "pre",
        "mi"
      ],
      [
        "gen",
        "er"
      ],
      [
        "jo",
        "b"
      ],
      [
        "level",
        "s"
      ],
      [
        "wa",
        "it"
      ],
      [
        "fam",
        "il"
      ],
      [
        "comple",
        "ted"
      ],
      [
        "limit",
        "ed"
      ],
      [
        "bankrupt",
        "cy"
      ],
      [
        "h",
        "ong"
      ],
      [
        "k",
        "ind"
      ],
      [
        "con",
        "f"
      ],
      [
        "su",
        "f"
      ],
      [
        "ha",
        "el"
      ],
      [
        "af",
        "fect"
      ],
      [
        "vo",
        "te"
      ],
      [
        "inclu",
        "des"
      ],
      [
        "att",
        "le"
      ],
      [
        "adv",
        "is"
      ],
      [
        "mic",
        "hael"
      ],
      [
        "compl",
        "ain"
      ],
      [
        "diffic",
        "ult"
      ],
      [
        "g",
        "n"
      ],
      [
        "r",
        "at"
      ],
      [
        "t",
        "reat"
      ],
      [
        "es",
        "pe"
      ],
      [
        "qu",
        "e"
      ],
      [
        "qu",
        "o"
      ],
      [
        "pu",
        "sh"
      ],
      [
        "sub",
        "stant"
      ],
      [
        "yo",
        "ung"
      ],
      [
        "distr",
        "ict"
      ],
      [
        "activ",
        "ity"
      ],
      [
        "legis",
        "lation"
      ],
      [
        "substant",
        "ial"
      ],
      [
        "f",
        "ren"
      ],
      [
        "re",
        "ti"
      ],
      [
        "to",
        "ward"
      ],
      [
        "com",
        "es"
      ],
      [
        "me",
        "x"
      ],
      [
        "mer",
        "rill"
      ],
      [
        "hold",
        "er"
      ],
      [
        "main",
        "tain"
      ],
      [
        "ev",
        "ent"
      ],
      [
        "colu",
        "mbia"
      ],
      [
        "attem",
        "pt"
      ],
      [
        "b",
        "ach"
      ],
      [
        "d",
        "ig"
      ],
      [
        "st",
        "at"
      ],
      [
        "ex",
        "ist"
      ],
      [
        "vi",
        "ol"
      ],
      [
        "n",
        "as"
      ],
      [
        "w",
        "ants"
      ],
      [
        "er",
        "ing"
      ],
      [
        "com",
        "mod"
      ],
      [
        "ac",
        "cept"
      ],
      [
        "new",
        "sp"
      ],
      [
        "if",
        "y"
      ],
      [
        "pre",
        "ad"
      ],
      [
        "fr",
        "i"
      ],
      [
        "el",
        "se"
      ],
      [
        "sur",
        "ve"
      ],
      [
        "par",
        "ts"
      ],
      [
        "ass",
        "ist"
      ],
      [
        "app",
        "arent"
      ],
      [
        "exp",
        "and"
      ],
      [
        "institut",
        "ions"
      ],
      [
        "sol",
        "id"
      ],
      [
        "reser",
        "ves"
      ],
      [
        "me",
        "mber"
      ],
      [
        "qu",
        "al"
      ],
      [
        "pr",
        "im"
      ],
      [
        "concern",
        "s"
      ],
      [
        "hu",
        "ge"
      ],
      [
        "onal",
        "d"
      ],
      [
        "respon",
        "si"
      ],
      [
        "sci",
        "ent"
      ],
      [
        "independ",
        "ent"
      ],
      [
        "s",
        "cr"
      ],
      [
        "in",
        "o"
      ],
      [
        "br",
        "ing"
      ],
      [
        "br",
        "id"
      ],
      [
        "own",
        "s"
      ],
      [
        "mot",
        "or"
      ],
      [
        "wat",
        "er"
      ],
      [
        "invol",
        "ved"
      ],
      [
        "lyn",
        "ch"
      ],
      [
        "schedul",
        "ed"
      ],
      [
        "k",
        "ong"
      ],
      [
        "re",
        "ally"
      ],
      [
        "out",
        "side"
      ],
      [
        "ant",
        "a"
      ],
      [
        "pres",
        "sure"
      ],
      [
        "buy",
        "ers"
      ],
      [
        "issu",
        "ed"
      ],
      [
        "partic",
        "ip"
      ],
      [
        "cover",
        "ed"
      ],
      [
        "transport",
        "ation"
      ],
      [
        "r",
        "il"
      ],
      [
        "al",
        "ways"
      ],
      [
        "to",
        "u"
      ],
      [
        "be",
        "ar"
      ],
      [
        "sh",
        "op"
      ],
      [
        "ap",
        "ril"
      ],
      [
        "qu",
        "art"
      ],
      [
        "bas",
        "is"
      ],
      [
        "bro",
        "ther"
      ],
      [
        "sub",
        "ject"
      ],
      [
        "long",
        "er"
      ],
      [
        "hu",
        "man"
      ],
      [
        "strate",
        "g"
      ],
      [
        "tru",
        "ck"
      ],
      [
        "produc",
        "ers"
      ],
      [
        "quart",
        "ers"
      ],
      [
        "3",
        "0"
      ],
      [
        "d",
        "ail"
      ],
      [
        "f",
        "ix"
      ],
      [
        "l",
        "ar"
      ],
      [
        "in",
        "ed"
      ],
      [
        "ne",
        "l"
      ],
      [
        "dec",
        "id"
      ],
      [
        "cial",
        "ly"
      ],
      [
        "lead",
        "er"
      ],
      [
        "del",
        "ay"
      ],
      [
        "environ",
        "mental"
      ],
      [
        "broker",
        "age"
      ],
      [
        "espe",
        "cially"
      ],
      [
        "dail",
        "y"
      ],
      [
        "a",
        "vo"
      ],
      [
        "it",
        "ors"
      ],
      [
        "me",
        "ans"
      ],
      [
        "pr",
        "inc"
      ],
      [
        "pr",
        "ime"
      ],
      [
        "usu",
        "ally"
      ],
      [
        "c",
        "anc"
      ],
      [
        "m",
        "as"
      ],
      [
        "p",
        "ain"
      ],
      [
        "it",
        "em"
      ],
      [
        "is",
        "es"
      ],
      [
        "ab",
        "lish"
      ],
      [
        "est",
        "ablish"
      ],
      [
        "cr",
        "im"
      ],
      [
        "dis",
        "closed"
      ],
      [
        "add",
        "s"
      ],
      [
        "wor",
        "th"
      ],
      [
        "them",
        "selves"
      ],
      [
        "acqu",
        "ire"
      ],
      [
        "compet",
        "ition"
      ],
      [
        "project",
        "s"
      ],
      [
        "rich",
        "ard"
      ],
      [
        "fav",
        "or"
      ],
      [
        "i",
        "ent"
      ],
      [
        "l",
        "ack"
      ],
      [
        "x",
        "el"
      ],
      [
        "are",
        "as"
      ],
      [
        "con",
        "st"
      ],
      [
        "con",
        "serv"
      ],
      [
        "im",
        "pact"
      ],
      [
        "au",
        "ction"
      ],
      [
        "cent",
        "ral"
      ],
      [
        "anc",
        "es"
      ],
      [
        "dre",
        "xel"
      ],
      [
        "arbitr",
        "age"
      ],
      [
        "confer",
        "ence"
      ],
      [
        "p",
        "ick"
      ],
      [
        "s",
        "at"
      ],
      [
        "ill",
        "s"
      ],
      [
        "no",
        "te"
      ],
      [
        "hold",
        "ings"
      ],
      [
        "large",
        "ly"
      ],
      [
        "estim",
        "ate"
      ],
      [
        "start",
        "ed"
      ],
      [
        "hour",
        "s"
      ],
      [
        "n",
        "av"
      ],
      [
        "im",
        "medi"
      ],
      [
        "fore",
        "cast"
      ],
      [
        "ens",
        "es"
      ],
      [
        "sup",
        "ply"
      ],
      [
        "redu",
        "ced"
      ],
      [
        "brok",
        "ers"
      ],
      [
        "seem",
        "s"
      ],
      [
        "fren",
        "ch"
      ],
      [
        "l",
        "ight"
      ],
      [
        "re",
        "au"
      ],
      [
        "for",
        "t"
      ],
      [
        "bu",
        "reau"
      ],
      [
        "la",
        "un"
      ],
      [
        "cour",
        "se"
      ],
      [
        "major",
        "ity"
      ],
      [
        "mor",
        "gan"
      ],
      [
        "accoun",
        "ts"
      ],
      [
        "rul",
        "es"
      ],
      [
        "th",
        "us"
      ],
      [
        "re",
        "cess"
      ],
      [
        "st",
        "u"
      ],
      [
        "ex",
        "clu"
      ],
      [
        "ne",
        "cess"
      ],
      [
        "ap",
        "s"
      ],
      [
        "ti",
        "ble"
      ],
      [
        "congress",
        "ional"
      ],
      [
        "need",
        "ed"
      ],
      [
        "wed",
        "nes"
      ],
      [
        "quick",
        "ly"
      ],
      [
        "wednes",
        "day"
      ],
      [
        "re",
        "view"
      ],
      [
        "se",
        "en"
      ],
      [
        "de",
        "tail"
      ],
      [
        "pro",
        "secut"
      ],
      [
        "li",
        "qu"
      ],
      [
        "inter",
        "view"
      ],
      [
        "distr",
        "ibut"
      ],
      [
        "settle",
        "ment"
      ],
      [
        "surve",
        "y"
      ],
      [
        "fix",
        "ed"
      ],
      [
        "c",
        "am"
      ],
      [
        "d",
        "one"
      ],
      [
        "v",
        "an"
      ],
      [
        "an",
        "g"
      ],
      [
        "se",
        "ctor"
      ],
      [
        "de",
        "ce"
      ],
      [
        "pr",
        "i"
      ],
      [
        "trad",
        "ed"
      ],
      [
        "general",
        "ly"
      ],
      [
        "yield",
        "s"
      ],
      [
        "commun",
        "ity"
      ],
      [
        "pet",
        "ers"
      ],
      [
        "appro",
        "pri"
      ],
      [
        "dece",
        "mber"
      ],
      [
        "c",
        "ing"
      ],
      [
        "f",
        "lu"
      ],
      [
        "i",
        "i"
      ],
      [
        "ch",
        "r"
      ],
      [
        "ch",
        "ain"
      ],
      [
        "de",
        "ath"
      ],
      [
        "ir",
        "ing"
      ],
      [
        "ex",
        "per"
      ],
      [
        "li",
        "ed"
      ],
      [
        "cr",
        "ash"
      ],
      [
        "let",
        "ter"
      ],
      [
        "benef",
        "it"
      ],
      [
        "volat",
        "ility"
      ],
      [
        "manufactur",
        "ers"
      ],
      [
        "c",
        "at"
      ],
      [
        "s",
        "day"
      ],
      [
        "st",
        "ay"
      ],
      [
        "ro",
        "ll"
      ],
      [
        "ear",
        "son"
      ],
      [
        "sh",
        "earson"
      ],
      [
        "mo",
        "del"
      ],
      [
        "tr",
        "ial"
      ],
      [
        "wo",
        "men"
      ],
      [
        "cont",
        "ain"
      ],
      [
        "car",
        "ry"
      ],
      [
        "car",
        "ri"
      ],
      [
        "rece",
        "ive"
      ],
      [
        "appro",
        "ach"
      ],
      [
        "begin",
        "ning"
      ],
      [
        "thur",
        "sday"
      ],
      [
        "c",
        "il"
      ],
      [
        "g",
        "lo"
      ],
      [
        "n",
        "ic"
      ],
      [
        "v",
        "il"
      ],
      [
        "at",
        "ives"
      ],
      [
        "st",
        "ren"
      ],
      [
        "se",
        "c"
      ],
      [
        "pro",
        "spect"
      ],
      [
        "so",
        "cial"
      ],
      [
        "im",
        "ports"
      ],
      [
        "all",
        "en"
      ],
      [
        "fo",
        "cus"
      ],
      [
        "wo",
        "od"
      ],
      [
        "ser",
        "ious"
      ],
      [
        "under",
        "writ"
      ],
      [
        "though",
        "t"
      ],
      [
        "sim",
        "ply"
      ],
      [
        "usu",
        "al"
      ],
      [
        "sit",
        "uation"
      ],
      [
        "canc",
        "er"
      ],
      [
        "stren",
        "g"
      ],
      [
        "e",
        "ight"
      ],
      [
        "as",
        "set"
      ],
      [
        "pl",
        "c"
      ],
      [
        "sto",
        "re"
      ],
      [
        "plan",
        "ned"
      ],
      [
        "tax",
        "es"
      ],
      [
        "turn",
        "ed"
      ],
      [
        "med",
        "ia"
      ],
      [
        "enter",
        "tain"
      ],
      [
        "nat",
        "ural"
      ],
      [
        "prote",
        "ction"
      ],
      [
        "conver",
        "tible"
      ],
      [
        "premi",
        "um"
      ],
      [
        "s",
        "ess"
      ],
      [
        "u",
        "ing"
      ],
      [
        "ar",
        "k"
      ],
      [
        "ro",
        "y"
      ],
      [
        "ic",
        "ted"
      ],
      [
        "ver",
        "aged"
      ],
      [
        "fil",
        "ing"
      ],
      [
        "want",
        "ed"
      ],
      [
        "democrat",
        "ic"
      ],
      [
        "hist",
        "ory"
      ],
      [
        "recess",
        "ion"
      ],
      [
        "a",
        "head"
      ],
      [
        "c",
        "and"
      ],
      [
        "p",
        "ted"
      ],
      [
        "r",
        "ally"
      ],
      [
        "er",
        "y"
      ],
      [
        "at",
        "ory"
      ],
      [
        "ve",
        "h"
      ],
      [
        "requ",
        "ired"
      ],
      [
        "discus",
        "s"
      ],
      [
        "h",
        "aps"
      ],
      [
        "n",
        "u"
      ],
      [
        "o",
        "ts"
      ],
      [
        "p",
        "ond"
      ],
      [
        "ro",
        "ck"
      ],
      [
        "ve",
        "to"
      ],
      [
        "be",
        "came"
      ],
      [
        "res",
        "pond"
      ],
      [
        "ac",
        "y"
      ],
      [
        "du",
        "ct"
      ],
      [
        "per",
        "haps"
      ],
      [
        "produ",
        "ce"
      ],
      [
        "return",
        "s"
      ],
      [
        "sum",
        "mer"
      ],
      [
        "edu",
        "cation"
      ],
      [
        "a",
        "im"
      ],
      [
        "f",
        "re"
      ],
      [
        "t",
        "ren"
      ],
      [
        "mo",
        "ody"
      ],
      [
        "ac",
        "c"
      ],
      [
        "ast",
        "er"
      ],
      [
        "au",
        "d"
      ],
      [
        "cau",
        "sed"
      ],
      [
        "dr",
        "aw"
      ],
      [
        "gu",
        "ber"
      ],
      [
        "clos",
        "ing"
      ],
      [
        "tem",
        "por"
      ],
      [
        "show",
        "ed"
      ],
      [
        "consider",
        "ed"
      ],
      [
        "benef",
        "its"
      ],
      [
        "partners",
        "hip"
      ],
      [
        "soft",
        "ware"
      ],
      [
        "advanc",
        "ed"
      ],
      [
        "f",
        "low"
      ],
      [
        "to",
        "wn"
      ],
      [
        "be",
        "l"
      ],
      [
        "ag",
        "ing"
      ],
      [
        "ex",
        "ports"
      ],
      [
        "res",
        "our"
      ],
      [
        "any",
        "thing"
      ],
      [
        "fr",
        "ance"
      ],
      [
        "rough",
        "t"
      ],
      [
        "direct",
        "ly"
      ],
      [
        "credit",
        "ors"
      ],
      [
        "tra",
        "vel"
      ],
      [
        "deli",
        "very"
      ],
      [
        "hous",
        "ing"
      ],
      [
        "brother",
        "s"
      ],
      [
        "chr",
        "ist"
      ],
      [
        "f",
        "ill"
      ],
      [
        "g",
        "ia"
      ],
      [
        "p",
        "ending"
      ],
      [
        "r",
        "ing"
      ],
      [
        "r",
        "ap"
      ],
      [
        "re",
        "lat"
      ],
      [
        "at",
        "l"
      ],
      [
        "am",
        "a"
      ],
      [
        "ho",
        "st"
      ],
      [
        "ie",
        "ga"
      ],
      [
        "just",
        "ice"
      ],
      [
        "inde",
        "ed"
      ],
      [
        "sup",
        "p"
      ],
      [
        "nor",
        "iega"
      ],
      [
        "def",
        "end"
      ],
      [
        "requ",
        "est"
      ],
      [
        "franc",
        "s"
      ],
      [
        "hur",
        "t"
      ],
      [
        "seas",
        "on"
      ],
      [
        "geor",
        "gia"
      ],
      [
        "jum",
        "ped"
      ],
      [
        "prefer",
        "red"
      ],
      [
        "avo",
        "id"
      ],
      [
        "princ",
        "ip"
      ],
      [
        "c",
        "ard"
      ],
      [
        "c",
        "bs"
      ],
      [
        "w",
        "id"
      ],
      [
        "lo",
        "g"
      ],
      [
        "im",
        "prov"
      ],
      [
        "off",
        "set"
      ],
      [
        "ho",
        "pe"
      ],
      [
        "trad",
        "ition"
      ],
      [
        "bank",
        "ers"
      ],
      [
        "pre",
        "vent"
      ],
      [
        "ma",
        "x"
      ],
      [
        "americ",
        "ans"
      ],
      [
        "earn",
        "ed"
      ],
      [
        "tal",
        "k"
      ],
      [
        "contin",
        "uing"
      ],
      [
        "cli",
        "mb"
      ],
      [
        "flo",
        "or"
      ],
      [
        "entertain",
        "ment"
      ],
      [
        "d",
        "onald"
      ],
      [
        "f",
        "ight"
      ],
      [
        "u",
        "red"
      ],
      [
        "no",
        "thing"
      ],
      [
        "share",
        "holder"
      ],
      [
        "ant",
        "icip"
      ],
      [
        "min",
        "imum"
      ],
      [
        "fund",
        "ing"
      ],
      [
        "ste",
        "in"
      ],
      [
        "sm",
        "ith"
      ],
      [
        "ga",
        "me"
      ],
      [
        "geor",
        "ge"
      ],
      [
        "child",
        "ren"
      ],
      [
        "k",
        "en"
      ],
      [
        "to",
        "ge"
      ],
      [
        "ap",
        "h"
      ],
      [
        "af",
        "t"
      ],
      [
        "mer",
        "ger"
      ],
      [
        "announce",
        "ment"
      ],
      [
        "qual",
        "ity"
      ],
      [
        "toge",
        "ther"
      ],
      [
        "d",
        "on"
      ],
      [
        "p",
        "it"
      ],
      [
        "op",
        "port"
      ],
      [
        "min",
        "ister"
      ],
      [
        "ev",
        "idence"
      ],
      [
        "buil",
        "t"
      ],
      [
        "small",
        "er"
      ],
      [
        "spokes",
        "woman"
      ],
      [
        "mach",
        "ine"
      ],
      [
        "pil",
        "ots"
      ],
      [
        "restr",
        "ict"
      ],
      [
        "dig",
        "ital"
      ],
      [
        "const",
        "itut"
      ],
      [
        "vil",
        "le"
      ],
      [
        "opport",
        "un"
      ],
      [
        "e",
        "le"
      ],
      [
        "z",
        "e"
      ],
      [
        "in",
        "di"
      ],
      [
        "re",
        "sol"
      ],
      [
        "de",
        "termin"
      ],
      [
        "ir",
        "s"
      ],
      [
        "pr",
        "ior"
      ],
      [
        "art",
        "icle"
      ],
      [
        "hold",
        "s"
      ],
      [
        "contin",
        "ues"
      ],
      [
        "cre",
        "ated"
      ],
      [
        "him",
        "self"
      ],
      [
        "comple",
        "te"
      ],
      [
        "shar",
        "ply"
      ],
      [
        "b",
        "on"
      ],
      [
        "i",
        "er"
      ],
      [
        "m",
        "ur"
      ],
      [
        "r",
        "ad"
      ],
      [
        "r",
        "ied"
      ],
      [
        "ed",
        "itor"
      ],
      [
        "su",
        "per"
      ],
      [
        "mo",
        "ved"
      ],
      [
        "ac",
        "ity"
      ],
      [
        "ak",
        "er"
      ],
      [
        "part",
        "ner"
      ],
      [
        "over",
        "seas"
      ],
      [
        "gr",
        "aph"
      ],
      [
        "cap",
        "acity"
      ],
      [
        "pt",
        "ion"
      ],
      [
        "legis",
        "lat"
      ],
      [
        "coll",
        "ap"
      ],
      [
        "resour",
        "ces"
      ],
      [
        "j",
        "ury"
      ],
      [
        "n",
        "y"
      ],
      [
        "s",
        "pr"
      ],
      [
        "s",
        "ize"
      ],
      [
        "w",
        "on"
      ],
      [
        "un",
        "changed"
      ],
      [
        "ic",
        "i"
      ],
      [
        "ly",
        "ing"
      ],
      [
        "con",
        "ne"
      ],
      [
        "con",
        "duct"
      ],
      [
        "act",
        "ually"
      ],
      [
        "fe",
        "at"
      ],
      [
        "pay",
        "ment"
      ],
      [
        "ton",
        "s"
      ],
      [
        "develo",
        "ped"
      ],
      [
        "hu",
        "go"
      ],
      [
        "bor",
        "row"
      ],
      [
        "sour",
        "ce"
      ],
      [
        "thr",
        "ift"
      ],
      [
        "liqu",
        "id"
      ],
      [
        "k",
        "ill"
      ],
      [
        "t",
        "re"
      ],
      [
        "en",
        "cour"
      ],
      [
        "as",
        "ed"
      ],
      [
        "con",
        "s"
      ],
      [
        "will",
        "ing"
      ],
      [
        "gro",
        "und"
      ],
      [
        "sen",
        "se"
      ],
      [
        "phil",
        "ip"
      ],
      [
        "apparent",
        "ly"
      ],
      [
        "a",
        "ve"
      ],
      [
        "er",
        "c"
      ],
      [
        "ent",
        "ire"
      ],
      [
        "de",
        "fin"
      ],
      [
        "ex",
        "erc"
      ],
      [
        "ist",
        "ic"
      ],
      [
        "quarter",
        "ly"
      ],
      [
        "cond",
        "itions"
      ],
      [
        "regul",
        "ators"
      ],
      [
        "transa",
        "ctions"
      ],
      [
        "quest",
        "ions"
      ],
      [
        "broad",
        "cast"
      ],
      [
        "kid",
        "der"
      ],
      [
        "reti",
        "re"
      ],
      [
        "sess",
        "ion"
      ],
      [
        "c",
        "iv"
      ],
      [
        "m",
        "p"
      ],
      [
        "w",
        "age"
      ],
      [
        "re",
        "li"
      ],
      [
        "for",
        "ced"
      ],
      [
        "ac",
        "ross"
      ],
      [
        "pl",
        "us"
      ],
      [
        "gen",
        "cy"
      ],
      [
        "sw",
        "it"
      ],
      [
        "vers",
        "ion"
      ],
      [
        "prom",
        "ise"
      ],
      [
        "design",
        "ed"
      ],
      [
        "hop",
        "es"
      ],
      [
        "believ",
        "es"
      ],
      [
        "gi",
        "ant"
      ],
      [
        "f",
        "le"
      ],
      [
        "re",
        "ject"
      ],
      [
        "de",
        "v"
      ],
      [
        "ex",
        "port"
      ],
      [
        "ex",
        "tra"
      ],
      [
        "mo",
        "ves"
      ],
      [
        "po",
        "se"
      ],
      [
        "ge",
        "l"
      ],
      [
        "bo",
        "t"
      ],
      [
        "close",
        "ly"
      ],
      [
        "prote",
        "ct"
      ],
      [
        "ko",
        "re"
      ],
      [
        "pop",
        "ular"
      ],
      [
        "decid",
        "ed"
      ],
      [
        "b",
        "i"
      ],
      [
        "b",
        "lu"
      ],
      [
        "d",
        "an"
      ],
      [
        "l",
        "er"
      ],
      [
        "m",
        "ing"
      ],
      [
        "re",
        "comm"
      ],
      [
        "sa",
        "ch"
      ],
      [
        "so",
        "met"
      ],
      [
        "str",
        "ike"
      ],
      [
        "fin",
        "al"
      ],
      [
        "part",
        "ly"
      ],
      [
        "min",
        "ut"
      ],
      [
        "produ",
        "ced"
      ],
      [
        "cir",
        "c"
      ],
      [
        "expl",
        "ain"
      ],
      [
        "b",
        "attle"
      ],
      [
        "h",
        "ind"
      ],
      [
        "i",
        "ble"
      ],
      [
        "m",
        "ut"
      ],
      [
        "un",
        "certain"
      ],
      [
        "or",
        "ig"
      ],
      [
        "ent",
        "ly"
      ],
      [
        "be",
        "hind"
      ],
      [
        "ex",
        "cept"
      ],
      [
        "prov",
        "ision"
      ],
      [
        "econom",
        "ists"
      ],
      [
        "pay",
        "ing"
      ],
      [
        "ris",
        "ing"
      ],
      [
        "wr",
        "ite"
      ],
      [
        "associ",
        "ates"
      ],
      [
        "run",
        "ning"
      ],
      [
        "wat",
        "ch"
      ],
      [
        "respon",
[...]
